{
    "0": "\u0100",
    "1": "\u0101",
    "2": "\u0102",
    "3": "\u0103",
    "4": "\u0104",
    "5": "\u0105",
    "6": "\u0106",
    "7": "\u0107",
    "8": "\u0108",
    "9": "\u0109",
    "10": "\u010a",
    "11": "\u010b",
    "12": "\u010c",
    "13": "\u010d",
    "14": "\u010e",
    "15": "\u010f",
    "16": "\u0110",
    "17": "\u0111",
    "18": "\u0112",
    "19": "\u0113",
    "20": "\u0114",
    "21": "\u0115",
    "22": "\u0116",
    "23": "\u0117",
    "24": "\u0118",
    "25": "\u0119",
    "26": "\u011a",
    "27": "\u011b",
    "28": "\u011c",
    "29": "\u011d",
    "30": "\u011e",
    "31": "\u011f",
    "32": "\u0120",
    "33": "!",
    "34": "\"",
    "35": "#",
    "36": "$",
    "37": "%",
    "38": "&",
    "39": "'",
    "40": "(",
    "41": ")",
    "42": "*",
    "43": "+",
    "44": ",",
    "45": "-",
    "46": ".",
    "47": "/",
    "48": "0",
    "49": "1",
    "50": "2",
    "51": "3",
    "52": "4",
    "53": "5",
    "54": "6",
    "55": "7",
    "56": "8",
    "57": "9",
    "58": ":",
    "59": ";",
    "60": "<",
    "61": "=",
    "62": ">",
    "63": "?",
    "64": "@",
    "65": "A",
    "66": "B",
    "67": "C",
    "68": "D",
    "69": "E",
    "70": "F",
    "71": "G",
    "72": "H",
    "73": "I",
    "74": "J",
    "75": "K",
    "76": "L",
    "77": "M",
    "78": "N",
    "79": "O",
    "80": "P",
    "81": "Q",
    "82": "R",
    "83": "S",
    "84": "T",
    "85": "U",
    "86": "V",
    "87": "W",
    "88": "X",
    "89": "Y",
    "90": "Z",
    "91": "[",
    "92": "\\",
    "93": "]",
    "94": "^",
    "95": "_",
    "96": "`",
    "97": "a",
    "98": "b",
    "99": "c",
    "100": "d",
    "101": "e",
    "102": "f",
    "103": "g",
    "104": "h",
    "105": "i",
    "106": "j",
    "107": "k",
    "108": "l",
    "109": "m",
    "110": "n",
    "111": "o",
    "112": "p",
    "113": "q",
    "114": "r",
    "115": "s",
    "116": "t",
    "117": "u",
    "118": "v",
    "119": "w",
    "120": "x",
    "121": "y",
    "122": "z",
    "123": "{",
    "124": "|",
    "125": "}",
    "126": "~",
    "127": "\u0121",
    "128": "\u0122",
    "129": "\u0123",
    "130": "\u0124",
    "131": "\u0125",
    "132": "\u0126",
    "133": "\u0127",
    "134": "\u0128",
    "135": "\u0129",
    "136": "\u012a",
    "137": "\u012b",
    "138": "\u012c",
    "139": "\u012d",
    "140": "\u012e",
    "141": "\u012f",
    "142": "\u0130",
    "143": "\u0131",
    "144": "\u0132",
    "145": "\u0133",
    "146": "\u0134",
    "147": "\u0135",
    "148": "\u0136",
    "149": "\u0137",
    "150": "\u0138",
    "151": "\u0139",
    "152": "\u013a",
    "153": "\u013b",
    "154": "\u013c",
    "155": "\u013d",
    "156": "\u013e",
    "157": "\u013f",
    "158": "\u0140",
    "159": "\u0141",
    "160": "\u0142",
    "161": "\u00a1",
    "162": "\u00a2",
    "163": "\u00a3",
    "164": "\u00a4",
    "165": "\u00a5",
    "166": "\u00a6",
    "167": "\u00a7",
    "168": "\u00a8",
    "169": "\u00a9",
    "170": "\u00aa",
    "171": "\u00ab",
    "172": "\u00ac",
    "173": "\u0143",
    "174": "\u00ae",
    "175": "\u00af",
    "176": "\u00b0",
    "177": "\u00b1",
    "178": "\u00b2",
    "179": "\u00b3",
    "180": "\u00b4",
    "181": "\u00b5",
    "182": "\u00b6",
    "183": "\u00b7",
    "184": "\u00b8",
    "185": "\u00b9",
    "186": "\u00ba",
    "187": "\u00bb",
    "188": "\u00bc",
    "189": "\u00bd",
    "190": "\u00be",
    "191": "\u00bf",
    "192": "\u00c0",
    "193": "\u00c1",
    "194": "\u00c2",
    "195": "\u00c3",
    "196": "\u00c4",
    "197": "\u00c5",
    "198": "\u00c6",
    "199": "\u00c7",
    "200": "\u00c8",
    "201": "\u00c9",
    "202": "\u00ca",
    "203": "\u00cb",
    "204": "\u00cc",
    "205": "\u00cd",
    "206": "\u00ce",
    "207": "\u00cf",
    "208": "\u00d0",
    "209": "\u00d1",
    "210": "\u00d2",
    "211": "\u00d3",
    "212": "\u00d4",
    "213": "\u00d5",
    "214": "\u00d6",
    "215": "\u00d7",
    "216": "\u00d8",
    "217": "\u00d9",
    "218": "\u00da",
    "219": "\u00db",
    "220": "\u00dc",
    "221": "\u00dd",
    "222": "\u00de",
    "223": "\u00df",
    "224": "\u00e0",
    "225": "\u00e1",
    "226": "\u00e2",
    "227": "\u00e3",
    "228": "\u00e4",
    "229": "\u00e5",
    "230": "\u00e6",
    "231": "\u00e7",
    "232": "\u00e8",
    "233": "\u00e9",
    "234": "\u00ea",
    "235": "\u00eb",
    "236": "\u00ec",
    "237": "\u00ed",
    "238": "\u00ee",
    "239": "\u00ef",
    "240": "\u00f0",
    "241": "\u00f1",
    "242": "\u00f2",
    "243": "\u00f3",
    "244": "\u00f4",
    "245": "\u00f5",
    "246": "\u00f6",
    "247": "\u00f7",
    "248": "\u00f8",
    "249": "\u00f9",
    "250": "\u00fa",
    "251": "\u00fb",
    "252": "\u00fc",
    "253": "\u00fd",
    "254": "\u00fe",
    "255": "\u00ff",
    "256": "\u0120t",
    "257": "he",
    "258": "\u0120a",
    "259": "\u0120s",
    "260": "\u0120w",
    "261": "nd",
    "262": "\u0120the",
    "263": "ed",
    "264": "\u0120b",
    "265": "\u0120to",
    "266": "\u0120and",
    "267": "\u0120h",
    "268": "\u0120f",
    "269": "in",
    "270": "\u0120T",
    "271": "\u0120wa",
    "272": "re",
    "273": "it",
    "274": "ou",
    "275": "\u0120l",
    "276": "\u0120d",
    "277": "\u0120c",
    "278": "\u0120p",
    "279": "ay",
    "280": "\u0120m",
    "281": "er",
    "282": "\u0120was",
    "283": "om",
    "284": "\u0120The",
    "285": "\u0120he",
    "286": "is",
    "287": "ar",
    "288": "\u0120n",
    "289": "im",
    "290": "on",
    "291": "\u0120sa",
    "292": "id",
    "293": "ll",
    "294": "\u0120ha",
    "295": "\u0120g",
    "296": "at",
    "297": "\u0120S",
    "298": "ing",
    "299": "ot",
    "300": "en",
    "301": "an",
    "302": "le",
    "303": "or",
    "304": "ir",
    "305": "am",
    "306": "et",
    "307": "\u0120H",
    "308": "\u0120it",
    "309": "\u0120th",
    "310": "ig",
    "311": "\u0120They",
    "312": "\u0120in",
    "313": "il",
    "314": "\u0120pl",
    "315": "\u0120He",
    "316": "\u0120\"",
    "317": "ow",
    "318": "ver",
    "319": "ri",
    "320": "ut",
    "321": "\u0120be",
    "322": "\u0120u",
    "323": "\u0120said",
    "324": "\u0120play",
    "325": "ith",
    "326": "\u0120day",
    "327": "\u0120with",
    "328": "pp",
    "329": "On",
    "330": "\u0120o",
    "331": "\u0120y",
    "332": "oo",
    "333": "ked",
    "334": "\u0120r",
    "335": "\u0120her",
    "336": "ce",
    "337": "\u0120I",
    "338": "\u0120She",
    "339": "ld",
    "340": "\u0120Tim",
    "341": "\u0120his",
    "342": "\u0120st",
    "343": "ke",
    "344": "\u0120e",
    "345": "\u0120big",
    "346": "nt",
    "347": "ck",
    "348": "\u0120you",
    "349": "very",
    "350": "st",
    "351": "ve",
    "352": "end",
    "353": "\u0120on",
    "354": "un",
    "355": "\u0120happ",
    "356": "riend",
    "357": "\u0120friend",
    "358": "all",
    "359": "ily",
    "360": "\u0120L",
    "361": "\u0120they",
    "362": "\u0120we",
    "363": "\u0120had",
    "364": "\u0120not",
    "365": "\u0120li",
    "366": "\u0120up",
    "367": "her",
    "368": "\u0120want",
    "369": "\u0120of",
    "370": "ad",
    "371": "itt",
    "372": "|>",
    "373": "<|",
    "374": "<||>",
    "375": "se",
    "376": "\u0120B",
    "377": "\u0120do",
    "378": "\u0120happy",
    "379": "ent",
    "380": "\u0120very",
    "381": "\u0120M",
    "382": "es",
    "383": "\u0120that",
    "384": "\u0120saw",
    "385": "One",
    "386": "'s",
    "387": "ould",
    "388": "\u0120mom",
    "389": "\u0120for",
    "390": "\u0120sh",
    "391": "ittle",
    "392": "\u0120little",
    "393": "\u0120so",
    "394": "\u0120she",
    "395": "ch",
    "396": "ime",
    "397": "\u0120ne",
    "398": "\u0120nam",
    "399": ".\"",
    "400": "\u0120time",
    "401": "\u0120k",
    "402": "ound",
    "403": "\u0120there",
    "404": "\u0120named",
    "405": "\u0120sm",
    "406": "\u0120bo",
    "407": "\u0120were",
    "408": "\u0120Lily",
    "409": "\u0120wanted",
    "410": "\u0120but",
    "411": "out",
    "412": "The",
    "413": "\u0120friends",
    "414": "ved",
    "415": "!\"",
    "416": "ht",
    "417": "\u0120Tom",
    "418": "ird",
    "419": "el",
    "420": "\u0120bird",
    "421": "al",
    "422": "\u0120an",
    "423": "ake",
    "424": "\u0120too",
    "425": "ome",
    "426": "\u0120It",
    "427": "ug",
    "428": "ide",
    "429": "\u0120went",
    "430": "\u0120wh",
    "431": "\u0120hel",
    "432": "Once",
    "433": "\u0120is",
    "434": "\u0120all",
    "435": "\u0120help",
    "436": "ue",
    "437": "\u0120loo",
    "438": "\u0120lo",
    "439": "ter",
    "440": "\u0120A",
    "441": "\u0120upon",
    "442": "ry",
    "443": "ore",
    "444": "ind",
    "445": "\u0120fun",
    "446": "get",
    "447": "\u0120toy",
    "448": "ill",
    "449": "ame",
    "450": "\u0120as",
    "451": "\u0120at",
    "452": "ra",
    "453": "\u0120j",
    "454": "\u0120did",
    "455": "gether",
    "456": "\u0120re",
    "457": "ur",
    "458": "\u0120se",
    "459": "\u0120together",
    "460": "ack",
    "461": "\u0120cat",
    "462": "ly",
    "463": "\u0120tre",
    "464": "ood",
    "465": "ic",
    "466": "ted",
    "467": "\u0120dog",
    "468": "\u0120could",
    "469": "\u0120can",
    "470": "\u0120their",
    "471": "ard",
    "472": "ec",
    "473": "ark",
    "474": "\u0120gir",
    "475": "\u0120played",
    "476": "\u0120him",
    "477": "\u0120ball",
    "478": "?\"",
    "479": "\u0120girl",
    "480": "way",
    "481": "\u0120ro",
    "482": "\u0120go",
    "483": "hed",
    "484": "my",
    "485": "\u0120are",
    "486": "\u0120out",
    "487": "\u0120le",
    "488": "\u0120fr",
    "489": "ain",
    "490": "\u0120kn",
    "491": "hen",
    "492": "\u0120them",
    "493": "um",
    "494": "'t",
    "495": "ax",
    "496": "\u0120sad",
    "497": "ul",
    "498": "\u0120boy",
    "499": "\u0120tree",
    "500": "other",
    "501": "\u0120have",
    "502": "\u0120man",
    "503": "\u0120cl",
    "504": "\u0120loved",
    "505": "\u0120looked",
    "506": "oug",
    "507": "\u0120found",
    "508": "\u0120sp",
    "509": "\u0120star",
    "510": "\u0120Sue",
    "511": "one",
    "512": "hing",
    "513": "\u0120sc",
    "514": "\u0120back",
    "515": "own",
    "516": "\u0120Max",
    "517": "are",
    "518": "\u0120like",
    "519": "ful",
    "520": "side",
    "521": "\u0120me",
    "522": "\u0120bec",
    "523": "\u0120park",
    "524": "ight",
    "525": "ong",
    "526": "\u0120car",
    "527": "op",
    "528": "elt",
    "529": "\u0120One",
    "530": "\u0120liked",
    "531": "\u0120would",
    "532": "\u0120make",
    "533": "round",
    "534": "\u0120la",
    "535": "\u0120fa",
    "536": "\u0120felt",
    "537": "You",
    "538": "\u0120W",
    "539": "ell",
    "540": "\u0120see",
    "541": "\u0120But",
    "542": "omet",
    "543": "\u0120asked",
    "544": "ag",
    "545": "\u0120new",
    "546": "\u0120no",
    "547": "ice",
    "548": "\u0120Sam",
    "549": "ouse",
    "550": "\u0120started",
    "551": "ared",
    "552": "\u0120came",
    "553": "\u0120Ben",
    "554": "\u0120al",
    "555": "\u0120other",
    "556": "ought",
    "557": "iled",
    "558": "\u0120somet",
    "559": "\u0120ag",
    "560": "\u0120good",
    "561": "\u0120small",
    "562": "ss",
    "563": "\u0120br",
    "564": "\u0120smiled",
    "565": "\u0120say",
    "566": "ried",
    "567": "ade",
    "568": "ings",
    "569": "ob",
    "570": "pot",
    "571": "\u0120wor",
    "572": "\u0120find",
    "573": "\u0120ex",
    "574": "ia",
    "575": "\u0120away",
    "576": "ty",
    "577": "\u0120put",
    "578": "\u0120what",
    "579": "\u0120something",
    "580": "\u0120co",
    "581": "\u0120from",
    "582": "\u0120made",
    "583": "\u0120thought",
    "584": "ened",
    "585": "\u0120home",
    "586": "\u0120playing",
    "587": "ook",
    "588": "\u0120every",
    "589": "\u0120wal",
    "590": "\u0120mu",
    "591": "uc",
    "592": "ach",
    "593": "arn",
    "594": "\u0120Spot",
    "595": "\u0120ran",
    "596": "ile",
    "597": "\u0120F",
    "598": "ie",
    "599": "\u0120J",
    "600": "ave",
    "601": "\u0120again",
    "602": "\u0120some",
    "603": "\u0120laug",
    "604": "dd",
    "605": "\u0120house",
    "606": "\u0120down",
    "607": "\u0120fl",
    "608": "king",
    "609": "\u0120took",
    "610": "\u0120scared",
    "611": "\u0120pr",
    "612": "ny",
    "613": "ure",
    "614": "\u0120toys",
    "615": "\u0120learn",
    "616": "\u0120You",
    "617": "if",
    "618": "\u0120will",
    "619": "\u0120box",
    "620": "ick",
    "621": "ret",
    "622": "ab",
    "623": "ep",
    "624": "\u0120my",
    "625": "\u0120around",
    "626": "\u0120things",
    "627": "\u0120your",
    "628": "oud",
    "629": "\u0120bl",
    "630": "uck",
    "631": "\u0120when",
    "632": "ish",
    "633": "\u0120lived",
    "634": "\u0120fe",
    "635": "\u0120then",
    "636": "\u0120sun",
    "637": "as",
    "638": "\u0120sw",
    "639": ",\"",
    "640": "\u0120ch",
    "641": "us",
    "642": "pped",
    "643": "\u0120ab",
    "644": "\u0120Mia",
    "645": "ank",
    "646": "\u0120get",
    "647": "ucy",
    "648": "Tim",
    "649": "ump",
    "650": "Th",
    "651": "\u0120lot",
    "652": "ist",
    "653": "oth",
    "654": "\u0120tried",
    "655": "ap",
    "656": "\u0120know",
    "657": "\u0120says",
    "658": "\u0120got",
    "659": "ited",
    "660": "\u0120who",
    "661": "\u0120kne",
    "662": "ust",
    "663": "\u0120many",
    "664": "nder",
    "665": "\u0120int",
    "666": "\u0120about",
    "667": "Lily",
    "668": "\u0120pret",
    "669": "\u0120dec",
    "670": "\u0120any",
    "671": "\u0120red",
    "672": "\u0120D",
    "673": "ive",
    "674": "\u0120knew",
    "675": "ace",
    "676": "ous",
    "677": "\u0120more",
    "678": "ise",
    "679": "\u0120care",
    "680": "ally",
    "681": "\u0120pic",
    "682": "au",
    "683": "qu",
    "684": "\u0120hug",
    "685": "\u0120Lucy",
    "686": "\u0120learned",
    "687": "\u0120po",
    "688": "\u0120water",
    "689": "fter",
    "690": "\u0120v",
    "691": "\u0120became",
    "692": "\u0120best",
    "693": "ause",
    "694": "\u0120op",
    "695": "\u0120gre",
    "696": "\u0120exc",
    "697": "urp",
    "698": "ways",
    "699": "\u00e2\u0122",
    "700": "\u0120outside",
    "701": "\u0120laughed",
    "702": "\u0120look",
    "703": "\u0120always",
    "704": "\u0120decid",
    "705": "\u0120show",
    "706": "\u0120un",
    "707": "ant",
    "708": "\u0120Bob",
    "709": "\u0120room",
    "710": "fe",
    "711": "\u0120decided",
    "712": "\u0120ho",
    "713": "\u0120because",
    "714": "\u0120So",
    "715": "\u0120into",
    "716": "\u0120eat",
    "717": "ite",
    "718": "\u0120jump",
    "719": "\u0120And",
    "720": "\u0120pe",
    "721": "\u0120both",
    "722": "ers",
    "723": "\u0120Mom",
    "724": "\u0120dad",
    "725": "They",
    "726": "udd",
    "727": "\u0120ke",
    "728": "\u0120one",
    "729": "nn",
    "730": "\u0120this",
    "731": "\u0120excited",
    "732": "\u0120fast",
    "733": "\u0120nice",
    "734": "\u0120E",
    "735": "\u0120feel",
    "736": "Tom",
    "737": "Yes",
    "738": "\u0120run",
    "739": "\u0120long",
    "740": "\u0120told",
    "741": "\u0120sk",
    "742": "\u0120am",
    "743": "urpr",
    "744": "our",
    "745": "\u0120inside",
    "746": "ull",
    "747": "\u0120tr",
    "748": "\u0120surpr",
    "749": "\u0120mo",
    "750": "ink",
    "751": "\u0120pretty",
    "752": "iny",
    "753": "\u0120sor",
    "754": "Wh",
    "755": "\u0120take",
    "756": "og",
    "757": "\u0120sl",
    "758": "\u0120each",
    "759": "\u0120gave",
    "760": "\u0120much",
    "761": "\u0120gra",
    "762": "lew",
    "763": "nna",
    "764": "\u0120rock",
    "765": "\u0120how",
    "766": "\u0120str",
    "767": "ara",
    "768": "imal",
    "769": "\u0120animal",
    "770": "ged",
    "771": "\u0120need",
    "772": "\u0120than",
    "773": "But",
    "774": "ven",
    "775": "etter",
    "776": "\u0120tow",
    "777": "\u0120or",
    "778": "\u0120C",
    "779": "\u0120under",
    "780": "ess",
    "781": "\u0120old",
    "782": "\u0120sorry",
    "783": "ge",
    "784": "ised",
    "785": "ro",
    "786": "urt",
    "787": "\u0120cle",
    "788": "\u0120fish",
    "789": "\u0120walked",
    "790": "\u0120clo",
    "791": "and",
    "792": "\u0120bear",
    "793": "ft",
    "794": "ase",
    "795": "ast",
    "796": "\u0120hand",
    "797": "urn",
    "798": "\u0120We",
    "799": "\u0120kind",
    "800": "\u0120His",
    "801": "\u0120te",
    "802": "here",
    "803": "\u0120happened",
    "804": "\u0120just",
    "805": "\u0120flow",
    "806": "\u0120food",
    "807": "\u0120list",
    "808": "\u0120didn",
    "809": "\u0120animals",
    "810": "\u0120hig",
    "811": "pl",
    "812": "\u0120near",
    "813": "\u0120wat",
    "814": "\u0120ide",
    "815": "\u0120try",
    "816": "ched",
    "817": "\u0120sky",
    "818": "ine",
    "819": "\u0120sn",
    "820": "ving",
    "821": "\u0120fi",
    "822": "rom",
    "823": "\u0120us",
    "824": "\u0120idea",
    "825": "\u0120better",
    "826": "\u0120Amy",
    "827": "\u0120bug",
    "828": "\u0120heard",
    "829": "gry",
    "830": "\u0120its",
    "831": "\u0120tw",
    "832": "\u0120let",
    "833": "pec",
    "834": "ate",
    "835": "able",
    "836": "ff",
    "837": "\u0120en",
    "838": "\u0120careful",
    "839": "\u0120share",
    "840": "ex",
    "841": "\u0120if",
    "842": "Thank",
    "843": "Mom",
    "844": "\u0120fly",
    "845": "\u0120stor",
    "846": "ial",
    "847": "\u0120flew",
    "848": "more",
    "849": "\u0120anymore",
    "850": "\u0120Th",
    "851": "\u0120spec",
    "852": "\u0120special",
    "853": "ion",
    "854": "\u0120com",
    "855": "\u0120lots",
    "856": "\u0120never",
    "857": "\u0120by",
    "858": "lf",
    "859": "ream",
    "860": "\u0120dan",
    "861": "\u0120bu",
    "862": "\u0120fo",
    "863": "\u0120wind",
    "864": "\u0120don",
    "865": "\u0120tal",
    "866": "\u0120clean",
    "867": "ort",
    "868": "\u0120gr",
    "869": "\u0120love",
    "870": "rm",
    "871": "ber",
    "872": "\u0120end",
    "873": "\u0120Then",
    "874": "ople",
    "875": "\u0120even",
    "876": "\u010a\u010a",
    "877": "\u0120mag",
    "878": "\u0120hard",
    "879": "\u0120shiny",
    "880": "udden",
    "881": "\u0120fore",
    "882": "\u0120over",
    "883": "\u0120cake",
    "884": "ak",
    "885": "\u0120book",
    "886": "\u0120col",
    "887": "\u0120turn",
    "888": "\u0120fam",
    "889": "\u0120bad",
    "890": "\u0120safe",
    "891": "\u0120after",
    "892": "ady",
    "893": "\u0120Anna",
    "894": "uddenly",
    "895": "\u0120people",
    "896": "\u0120proud",
    "897": "\u0120Every",
    "898": "\u0120surprised",
    "899": "pected",
    "900": "Let",
    "901": "\u0120high",
    "902": "\u0120cu",
    "903": "\u0120hurt",
    "904": "\u0120come",
    "905": "imb",
    "906": "arden",
    "907": "\u0120door",
    "908": "\u0120garden",
    "909": "bb",
    "910": "\u0120ground",
    "911": "\u0120opened",
    "912": "\u0120picked",
    "913": "\u0120loud",
    "914": "\u0120climb",
    "915": "expected",
    "916": "\u0120unexpected",
    "917": "\u0120gl",
    "918": "\u0120che",
    "919": "ild",
    "920": "\u0120im",
    "921": "As",
    "922": "\u0120give",
    "923": "\u0120way",
    "924": "ail",
    "925": "'m",
    "926": "\u0120thanked",
    "927": "\u0120color",
    "928": "\u0120blue",
    "929": "\u0120still",
    "930": "\u0120ever",
    "931": "\u0120hugged",
    "932": "\u0120From",
    "933": "\u0120call",
    "934": "\u0120far",
    "935": "ip",
    "936": "\u0120Her",
    "937": "\u0120Sara",
    "938": "\u0120When",
    "939": "No",
    "940": "\u0120off",
    "941": "\u0120magic",
    "942": "iz",
    "943": "ough",
    "944": "age",
    "945": "ummy",
    "946": "\u0120K",
    "947": "\u0120jumped",
    "948": "\u0120should",
    "949": "\u0120family",
    "950": "\u0120par",
    "951": "ool",
    "952": "\u0120kid",
    "953": "\u0120smile",
    "954": "hes",
    "955": "uff",
    "956": "\u0120place",
    "957": "kay",
    "958": "\u0120walk",
    "959": "\u0120now",
    "960": "ct",
    "961": "\u0120In",
    "962": "\u0120great",
    "963": "em",
    "964": "ture",
    "965": "\u0120qu",
    "966": "les",
    "967": "\u0120strong",
    "968": "\u0120stay",
    "969": "\u0120unt",
    "970": "\u0120sto",
    "971": "aut",
    "972": "\u0120forest",
    "973": "ane",
    "974": "\u0120bra",
    "975": "itty",
    "976": "\u0120P",
    "977": "\u0120frog",
    "978": "\u0120bro",
    "979": "\u0120until",
    "980": "oon",
    "981": "\u0120beaut",
    "982": "dy",
    "983": "\u0120squ",
    "984": "\u0120stick",
    "985": "xt",
    "986": "\u0120next",
    "987": "\u0120boat",
    "988": "lease",
    "989": "ning",
    "990": "\u0120happily",
    "991": "\u0120listen",
    "992": "aking",
    "993": "\u0120kids",
    "994": "\u0120tra",
    "995": "ies",
    "996": "iful",
    "997": "\u0120beautiful",
    "998": "\u0120app",
    "999": "th",
    "1000": "\u0120helped",
    "1001": "\u0120dra",
    "1002": "\u0120showed",
    "1003": "\u0120clos",
    "1004": "be",
    "1005": "\u0120imp",
    "1006": "\u0120story",
    "1007": "unny",
    "1008": "oy",
    "1009": "\u0120while",
    "1010": "\u0120town",
    "1011": "rel",
    "1012": "pt",
    "1013": "\u0120rain",
    "1014": "ress",
    "1015": "\u0120picture",
    "1016": "\u0120being",
    "1017": "\u0120rem",
    "1018": "\u0120everyone",
    "1019": "It",
    "1020": "ary",
    "1021": "ree",
    "1022": "\u0120mor",
    "1023": "\u0120hat",
    "1024": "\u0120called",
    "1025": "\u0120met",
    "1026": "\u0120stopped",
    "1027": "\u0120ad",
    "1028": "\u0120game",
    "1029": "Now",
    "1030": "He",
    "1031": "Can",
    "1032": "\u0120angry",
    "1033": "ger",
    "1034": "uffy",
    "1035": "\u0120open",
    "1036": "\u0120wo",
    "1037": "\u0120truck",
    "1038": "\u0120keep",
    "1039": "\u0120soft",
    "1040": "When",
    "1041": "\u0120cry",
    "1042": "\u0120yummy",
    "1043": "\u0120lost",
    "1044": "\u0120bed",
    "1045": "\u0120Let",
    "1046": "\u0120Sally",
    "1047": "\u0120warm",
    "1048": "by",
    "1049": "vent",
    "1050": "\u0120brave",
    "1051": "\u0120mouse",
    "1052": "\u0120Wh",
    "1053": "\u0120ate",
    "1054": "\u0120Kitty",
    "1055": "ished",
    "1056": "\u0120de",
    "1057": "fore",
    "1058": "\u0120doll",
    "1059": "so",
    "1060": "\u0120couldn",
    "1061": "\u0120watch",
    "1062": "\u0120leave",
    "1063": "\u0120also",
    "1064": "dded",
    "1065": "\u0120fell",
    "1066": "\u0120green",
    "1067": "\u0120face",
    "1068": "\u0120two",
    "1069": "gan",
    "1070": "iss",
    "1071": "\u0120flowers",
    "1072": "bit",
    "1073": "What",
    "1074": "\u0120R",
    "1075": "ble",
    "1076": "\u0120noise",
    "1077": "abbit",
    "1078": "irst",
    "1079": "owl",
    "1080": "\u0120where",
    "1081": "az",
    "1082": "ock",
    "1083": "\u0120soon",
    "1084": "self",
    "1085": "\u0120slide",
    "1086": "\u0120rabbit",
    "1087": "\u0120hole",
    "1088": "luffy",
    "1089": "\u0120before",
    "1090": "irrel",
    "1091": "\u0120pus",
    "1092": "ired",
    "1093": "\u0120sat",
    "1094": "illy",
    "1095": "\u0120hear",
    "1096": "\u0120use",
    "1097": "\u00e2\u0122\u013f",
    "1098": "Hi",
    "1099": "\u0120pa",
    "1100": "\u0120kept",
    "1101": "\u00e2\u0122\u013e",
    "1102": "That",
    "1103": "\u0120squirrel",
    "1104": "ear",
    "1105": "Then",
    "1106": "ma",
    "1107": "\u0120nodded",
    "1108": "\u0120expl",
    "1109": "\u0120store",
    "1110": "\u0120cook",
    "1111": "\u0120hands",
    "1112": "Look",
    "1113": "\u0120birds",
    "1114": "\u0120pain",
    "1115": "\u0120going",
    "1116": "\u0120funny",
    "1117": "\u0120having",
    "1118": "day",
    "1119": "\u0120sing",
    "1120": "aybe",
    "1121": "uch",
    "1122": "\u0120ey",
    "1123": "aug",
    "1124": "\u0120catch",
    "1125": "aught",
    "1126": "\u0120Can",
    "1127": "\u0120Fluffy",
    "1128": "uit",
    "1129": "\u0120yell",
    "1130": "\u0120think",
    "1131": "leep",
    "1132": "\u0120cra",
    "1133": "\u0120fin",
    "1134": "Ben",
    "1135": "\u0120bre",
    "1136": "\u0120fix",
    "1137": "\u0120tired",
    "1138": "\u0120bunny",
    "1139": "\u0120used",
    "1140": "\u0120looking",
    "1141": "\u0120bus",
    "1142": "ange",
    "1143": "air",
    "1144": "\u0120work",
    "1145": "\u0120wr",
    "1146": "\u0120our",
    "1147": "\u0120pull",
    "1148": "We",
    "1149": "\u0120thr",
    "1150": "thing",
    "1151": "\u0120Now",
    "1152": "\u0120wait",
    "1153": "\u0120kit",
    "1154": "\u0120sound",
    "1155": "ting",
    "1156": "\u0120jo",
    "1157": "\u0120has",
    "1158": "\u0120G",
    "1159": "\u0120mean",
    "1160": "\u0120pond",
    "1161": "ember",
    "1162": "\u0120beh",
    "1163": "\u0120dr",
    "1164": "\u0120sunny",
    "1165": "led",
    "1166": "\u0120others",
    "1167": "\u0120ask",
    "1168": "ng",
    "1169": "chen",
    "1170": "\u0120kitchen",
    "1171": "\u0120talk",
    "1172": "\u0120flo",
    "1173": "\u0120dif",
    "1174": "rew",
    "1175": "\u0120pie",
    "1176": "\u0120Jo",
    "1177": "\u0120head",
    "1178": "\u0120real",
    "1179": "\u0120first",
    "1180": "\u0120tri",
    "1181": "\u0120mommy",
    "1182": "\u0120eyes",
    "1183": "ello",
    "1184": "\u0120import",
    "1185": "Hello",
    "1186": "\u0120fav",
    "1187": "ath",
    "1188": "joy",
    "1189": "\u0120z",
    "1190": "\u0120remember",
    "1191": "\u0120right",
    "1192": "\u0120flower",
    "1193": "\u0120con",
    "1194": "\u0120mess",
    "1195": "\u0120party",
    "1196": "\u0120cold",
    "1197": "\u0120Do",
    "1198": "\u0120vo",
    "1199": "\u0120swe",
    "1200": "ious",
    "1201": "\u0120sand",
    "1202": "\u0120\u00e2\u0122\u013e",
    "1203": "ac",
    "1204": "orn",
    "1205": "\u0120race",
    "1206": "\u0120curi",
    "1207": "imes",
    "1208": "\u0120important",
    "1209": "\u0120duck",
    "1210": "\u0120moral",
    "1211": "\u0120shared",
    "1212": "zy",
    "1213": "ount",
    "1214": "\u0120Jack",
    "1215": "\u0120ice",
    "1216": "\u0120okay",
    "1217": "\u0120advent",
    "1218": "\u0120worked",
    "1219": "llow",
    "1220": "At",
    "1221": "\u0120enjoy",
    "1222": "\u0120dress",
    "1223": "\u0120bright",
    "1224": "\u0120making",
    "1225": "\u0120curious",
    "1226": "\u0120own",
    "1227": "\u0120tall",
    "1228": "\u0120dir",
    "1229": "\u0120hop",
    "1230": "reed",
    "1231": "\u0120hid",
    "1232": "\u0120favor",
    "1233": "\u0120ri",
    "1234": "hn",
    "1235": "\u0120sleep",
    "1236": "\u0120dis",
    "1237": "Wow",
    "1238": "\u0120favorite",
    "1239": "\u0120thing",
    "1240": "\u0120began",
    "1241": "\u0120mon",
    "1242": "\u0120bag",
    "1243": "\u0120hill",
    "1244": "Don",
    "1245": "\u0120cla",
    "1246": "\u0120draw",
    "1247": "\u0120rest",
    "1248": "\u0120here",
    "1249": "\u0120yard",
    "1250": "\u0120tell",
    "1251": "\u0120Fin",
    "1252": "ster",
    "1253": "\u0120watched",
    "1254": "que",
    "1255": "\u0120follow",
    "1256": "\u0120move",
    "1257": "\u0120bel",
    "1258": "ect",
    "1259": "\u0120cut",
    "1260": "\u0120night",
    "1261": "\u0120agreed",
    "1262": "\u0120pick",
    "1263": "co",
    "1264": "\u0120block",
    "1265": "\u0120hun",
    "1266": "aper",
    "1267": "lly",
    "1268": "\u0120stop",
    "1269": "\u0120behind",
    "1270": "\u0120This",
    "1271": "\u0120surprise",
    "1272": "ied",
    "1273": "\u0120sho",
    "1274": "\u0120hot",
    "1275": "After",
    "1276": "\u0120table",
    "1277": "\u0120grass",
    "1278": "\u0120worry",
    "1279": "\u0120dark",
    "1280": "\u0120trees",
    "1281": "\u0120voice",
    "1282": "\u0120walking",
    "1283": "fere",
    "1284": "\u0120floor",
    "1285": "\u0120farm",
    "1286": "\u0120lion",
    "1287": "\u0120top",
    "1288": "\u0120differe",
    "1289": "\u0120please",
    "1290": "\u0120ru",
    "1291": "\u0120song",
    "1292": "\u0120butter",
    "1293": "\u0120tail",
    "1294": "\u0120sweet",
    "1295": "Max",
    "1296": "\u0120shout",
    "1297": "\u0120colors",
    "1298": "\u0120read",
    "1299": "\u0120Dad",
    "1300": "\u0120lady",
    "1301": "\u0120forg",
    "1302": "isy",
    "1303": "\u0120leaves",
    "1304": "\u0120closer",
    "1305": "ign",
    "1306": "\u0120cars",
    "1307": "\u0120turned",
    "1308": "\u0120needed",
    "1309": "\u0120tast",
    "1310": "Why",
    "1311": "aring",
    "1312": "\u0120wood",
    "1313": "\u0120cried",
    "1314": "\u0120different",
    "1315": "\u0120laugh",
    "1316": "\u0120del",
    "1317": "\u0120piece",
    "1318": "\u00e2\u0122\u013b",
    "1319": "ered",
    "1320": "\u0120Mr",
    "1321": "\u0120roll",
    "1322": "\u0120adventure",
    "1323": "\u0120fire",
    "1324": "\u0120does",
    "1325": "ike",
    "1326": "\u0120cr",
    "1327": "\u0120hungry",
    "1328": "\u0120hair",
    "1329": "\u0120Suddenly",
    "1330": "\u0120paper",
    "1331": "\u0120feeling",
    "1332": "\u0120yellow",
    "1333": "\u0120full",
    "1334": "bo",
    "1335": "\u0120prin",
    "1336": "Sue",
    "1337": "\u0120touch",
    "1338": "\u0120As",
    "1339": "Anna",
    "1340": "Sam",
    "1341": "\u0120wet",
    "1342": "\u0120friendly",
    "1343": "\u0120per",
    "1344": "oom",
    "1345": "ken",
    "1346": "cked",
    "1347": "ached",
    "1348": "\u0120swing",
    "1349": "\u0120fruit",
    "1350": "ient",
    "1351": "\u0120broken",
    "1352": "\u0120ready",
    "1353": "bye",
    "1354": "ppy",
    "1355": "\u0120prom",
    "1356": "\u0120That",
    "1357": "\u0120another",
    "1358": "\u0120light",
    "1359": "\u0120pretend",
    "1360": "\u0120dance",
    "1361": "ater",
    "1362": "\u0120climbed",
    "1363": "where",
    "1364": "\u0120listened",
    "1365": "\u0120Bobo",
    "1366": "\u0120danc",
    "1367": "\u0120running",
    "1368": "\u0120only",
    "1369": "\u0120plan",
    "1370": "\u0120gone",
    "1371": "\u0120swim",
    "1372": "bbed",
    "1373": "Suddenly",
    "1374": "sh",
    "1375": "\u0120train",
    "1376": "ila",
    "1377": "ndma",
    "1378": "Sara",
    "1379": "\u0120Jane",
    "1380": "\u0120close",
    "1381": "av",
    "1382": "She",
    "1383": "\u0120smell",
    "1384": "So",
    "1385": "aby",
    "1386": "\u0120amaz",
    "1387": "\u0120hold",
    "1388": "\u0120blocks",
    "1389": "\u0120wonder",
    "1390": "\u0120Timmy",
    "1391": "\u0120repl",
    "1392": "\u0120All",
    "1393": "\u0120butterf",
    "1394": "\u0120sees",
    "1395": "\u0120reached",
    "1396": "\u0120wall",
    "1397": "\u0120pu",
    "1398": "oney",
    "1399": "red",
    "1400": "\u0120slow",
    "1401": "\u0120helping",
    "1402": "\u0120dri",
    "1403": "\u0120cream",
    "1404": "\u0120cool",
    "1405": "\u0120glad",
    "1406": "af",
    "1407": "\u0120ant",
    "1408": "\u0120less",
    "1409": "\u0120been",
    "1410": "\u0120goodbye",
    "1411": "\u0120ac",
    "1412": "\u0120fight",
    "1413": "ather",
    "1414": "Mia",
    "1415": "\u0120pushed",
    "1416": "iced",
    "1417": "\u0120fair",
    "1418": "\u0120must",
    "1419": "\u0120hide",
    "1420": "\u0120moment",
    "1421": "\u0120window",
    "1422": "\u0120O",
    "1423": "\u0120sit",
    "1424": "\u0120balloon",
    "1425": "\u0120snow",
    "1426": "\u0120child",
    "1427": "\u0120explore",
    "1428": "\u0120Everyone",
    "1429": "\u0120ar",
    "1430": "\u0120wished",
    "1431": "\u0120baby",
    "1432": "\u0120done",
    "1433": "\u0120wag",
    "1434": "\u0120ste",
    "1435": "\u0120buy",
    "1436": "\u0120stuck",
    "1437": "\u0120perf",
    "1438": "\u0120thank",
    "1439": "\u0120might",
    "1440": "icy",
    "1441": "\u0120name",
    "1442": "ized",
    "1443": "\u0120trying",
    "1444": "\u0120bit",
    "1445": "\u0120coming",
    "1446": "\u0120bar",
    "1447": "\u0120quick",
    "1448": "\u0120fall",
    "1449": "\u0120apple",
    "1450": "ash",
    "1451": "\u0120scary",
    "1452": "\u0120looks",
    "1453": "\u0120build",
    "1454": "\u0120doing",
    "1455": "\u0120win",
    "1456": "\u0120underst",
    "1457": "aisy",
    "1458": "\u0120din",
    "1459": "\u0120dream",
    "1460": "\u0120dirty",
    "1461": "\u0120held",
    "1462": "ames",
    "1463": "\u0120books",
    "1464": "\u0120mar",
    "1465": "In",
    "1466": "\u0120butterfly",
    "1467": "\u0120left",
    "1468": "\u0120shouted",
    "1469": "\u0120count",
    "1470": "\u0120replied",
    "1471": "avy",
    "1472": "\u0120reach",
    "1473": "\u0120tiny",
    "1474": "\u0120through",
    "1475": "ott",
    "1476": "\u0120dro",
    "1477": "\u0120why",
    "1478": "\u0120air",
    "1479": "\u0120bran",
    "1480": "\u0120land",
    "1481": "key",
    "1482": "\u0120three",
    "1483": "\u0120pulled",
    "1484": "\u0120spl",
    "1485": "\u0120grow",
    "1486": "\u0120treat",
    "1487": "\u0120brother",
    "1488": "\u0120wise",
    "1489": "\u0120woods",
    "1490": "\u0120sure",
    "1491": "'re",
    "1492": "\u0120chair",
    "1493": "ix",
    "1494": "\u0120mat",
    "1495": "ins",
    "1496": "\u0120seen",
    "1497": "\u0120pink",
    "1498": "\u0120clapped",
    "1499": "\u0120plant",
    "1500": "ely",
    "1501": "\u0120owl",
    "1502": "\u0120cup",
    "1503": "ield",
    "1504": "\u0120sometimes",
    "1505": "andy",
    "1506": "\u0120fill",
    "1507": "\u0120cloud",
    "1508": "ask",
    "1509": "\u0120swam",
    "1510": "outh",
    "1511": "\u0120job",
    "1512": "\u0120colorful",
    "1513": "\u0120remembered",
    "1514": "\u0120bigger",
    "1515": "\u0120nest",
    "1516": "\u0120mouth",
    "1517": "pe",
    "1518": "Okay",
    "1519": "\u0120lesson",
    "1520": "\u0120join",
    "1521": "\u0120cre",
    "1522": "ph",
    "1523": "\u0120There",
    "1524": "oup",
    "1525": "room",
    "1526": "art",
    "1527": "\u0120waved",
    "1528": "uddy",
    "1529": "\u0120grabbed",
    "1530": "\u0120stayed",
    "1531": "Oh",
    "1532": "\u0120paint",
    "1533": "This",
    "1534": "\u0120clot",
    "1535": "\u0120cont",
    "1536": "\u0120clothes",
    "1537": "\u0120ve",
    "1538": "ower",
    "1539": "\u0120After",
    "1540": "\u0120waited",
    "1541": "\u0120quickly",
    "1542": "cle",
    "1543": "\u0120word",
    "1544": "\u0120broke",
    "1545": "ucky",
    "1546": "\u0120games",
    "1547": "\u0120cast",
    "1548": "\u0120blew",
    "1549": "\u0120gent",
    "1550": "\u0120Mommy",
    "1551": "\u0120enjoyed",
    "1552": "\u0120noticed",
    "1553": "Jo",
    "1554": "ries",
    "1555": "ation",
    "1556": "\u0120set",
    "1557": "\u0120likes",
    "1558": "\u0120pictures",
    "1559": "ton",
    "1560": "de",
    "1561": "\u0120sea",
    "1562": "\u0120heavy",
    "1563": "\u0120mus",
    "1564": "\u0120alone",
    "1565": "\u0120gif",
    "1566": "asure",
    "1567": "\u0120anything",
    "1568": "\u0120spot",
    "1569": "\u0120miss",
    "1570": "\u0120hopped",
    "1571": "\u0120world",
    "1572": "\u0120turns",
    "1573": "orm",
    "1574": "\u0120year",
    "1575": "der",
    "1576": "\u0120bott",
    "1577": "\u0120pat",
    "1578": "\u0120pot",
    "1579": "\u0120pen",
    "1580": "lc",
    "1581": "Her",
    "1582": "\u0120mix",
    "1583": "\u0120arm",
    "1584": "\u0120bike",
    "1585": "\u0120tight",
    "1586": "\u0120everywhere",
    "1587": "\u0120won",
    "1588": "Lucy",
    "1589": "\u0120tower",
    "1590": "\u0120threw",
    "1591": "\u0120himself",
    "1592": "\u0120followed",
    "1593": "\u0120Buddy",
    "1594": "\u0120ride",
    "1595": "man",
    "1596": "less",
    "1597": "\u0120ju",
    "1598": "\u0120je",
    "1599": "amp",
    "1600": "Bob",
    "1601": "ape",
    "1602": "\u0120comp",
    "1603": "\u0120key",
    "1604": "row",
    "1605": "\".",
    "1606": "\u0120white",
    "1607": "ctor",
    "1608": "\u0120wrong",
    "1609": "\u0120Daisy",
    "1610": "\u0120makes",
    "1611": "\u0120What",
    "1612": "\u0120break",
    "1613": "\u0120black",
    "1614": "arent",
    "1615": "ee",
    "1616": "ner",
    "1617": "Spot",
    "1618": "Do",
    "1619": "\u0120deep",
    "1620": "thy",
    "1621": "\u0120music",
    "1622": "\u0120pol",
    "1623": "\u0120delic",
    "1624": "cess",
    "1625": "ued",
    "1626": "\u0120forgot",
    "1627": "\u0120bee",
    "1628": "\u0120parent",
    "1629": "\u0120castle",
    "1630": "ves",
    "1631": "olly",
    "1632": "\u0120em",
    "1633": "iet",
    "1634": "\u0120wear",
    "1635": "\u0120hit",
    "1636": "ister",
    "1637": "oun",
    "1638": "\u0120quiet",
    "1639": "\u0120round",
    "1640": "ance",
    "1641": "\u0120stu",
    "1642": "\u0120danced",
    "1643": "\u0120vis",
    "1644": "ully",
    "1645": "\u0120wants",
    "1646": "\u0120leaf",
    "1647": "\u0120monster",
    "1648": "\u0120nap",
    "1649": "\u0120John",
    "1650": "\u0120understand",
    "1651": "ang",
    "1652": "\u0120bowl",
    "1653": "os",
    "1654": "rot",
    "1655": "ren",
    "1656": "\u0120bor",
    "1657": "\u0120talked",
    "1658": "itten",
    "1659": "\u0120dry",
    "1660": "\u0120faster",
    "1661": "\u0120cookies",
    "1662": "\u0120brought",
    "1663": "fully",
    "1664": "\u0120leg",
    "1665": "ross",
    "1666": "\u0120mum",
    "1667": "zz",
    "1668": "\u0120side",
    "1669": "ts",
    "1670": "From",
    "1671": "\u0120sign",
    "1672": "\u0120Inside",
    "1673": "\u0120smart",
    "1674": "cy",
    "1675": "\u0120rocks",
    "1676": "\u0120someone",
    "1677": "His",
    "1678": "\u0120poin",
    "1679": "\u0120sec",
    "1680": "\u0120sharing",
    "1681": "\u0120fox",
    "1682": "\u0120well",
    "1683": "\u0120res",
    "1684": "\u0120rel",
    "1685": "\u0120happen",
    "1686": "\u0120button",
    "1687": "\u0120branch",
    "1688": "\u0120Lila",
    "1689": "\u0120really",
    "1690": "\u0120finished",
    "1691": "ence",
    "1692": "ards",
    "1693": "\u0120dinner",
    "1694": "\u0120sister",
    "1695": "\u0120flying",
    "1696": "eddy",
    "1697": "\u0120contin",
    "1698": "\u0120worried",
    "1699": "\u0120ele",
    "1700": "\u0120To",
    "1701": "\u0120visit",
    "1702": "\u0120Maybe",
    "1703": "\u0120beach",
    "1704": "\u0120que",
    "1705": "\u0120secret",
    "1706": "\u0120el",
    "1707": "\u0120Sarah",
    "1708": "\u0120king",
    "1709": "John",
    "1710": "gy",
    "1711": "\u0120today",
    "1712": "\u0120perfect",
    "1713": "\u0120river",
    "1714": "\u0120everything",
    "1715": "\u0120silly",
    "1716": "\u0120shin",
    "1717": "\u0120Joe",
    "1718": "\u0120danger",
    "1719": "ipp",
    "1720": "\u0120children",
    "1721": "\u0120gu",
    "1722": "\u0120Soon",
    "1723": "\u0120field",
    "1724": "\u0120filled",
    "1725": "\u0120fur",
    "1726": "\u0120else",
    "1727": "\u0120smiles",
    "1728": "\u0120welc",
    "1729": "\u0120At",
    "1730": "\u0120wish",
    "1731": "\u0120Em",
    "1732": "While",
    "1733": "\u0120sang",
    "1734": "\u0120gi",
    "1735": "ze",
    "1736": "\u0120pudd",
    "1737": "\u0120snack",
    "1738": "\u0120eating",
    "1739": "\u0120realized",
    "1740": "\u0120pieces",
    "1741": "\u0120promised",
    "1742": "ord",
    "1743": "\u0120spr",
    "1744": "\u0120pig",
    "1745": "\u0120free",
    "1746": "\u0120continued",
    "1747": "\u0120bite",
    "1748": "ead",
    "1749": "\u0120parents",
    "1750": "\u0120carefully",
    "1751": "ated",
    "1752": "itting",
    "1753": "\u0120ear",
    "1754": "Just",
    "1755": "\u0120jar",
    "1756": "Maybe",
    "1757": "\u0120cow",
    "1758": "Amy",
    "1759": "\u0120blank",
    "1760": "\u0120drag",
    "1761": "stead",
    "1762": "\u0120orange",
    "1763": "\u0120mud",
    "1764": "\u0120crying",
    "1765": "\u0120blanket",
    "1766": "\u0120enough",
    "1767": "\u0120rolled",
    "1768": "cket",
    "1769": "\u0120soup",
    "1770": "\u0120sail",
    "1771": "\u0120purp",
    "1772": "imi",
    "1773": "\u0120yes",
    "1774": "ale",
    "1775": "\u0120drink",
    "1776": "\u0120snake",
    "1777": "ses",
    "1778": "\u0120boun",
    "1779": "\u0120pet",
    "1780": "\u0120crab",
    "1781": "\u0120throw",
    "1782": "\u0120laughing",
    "1783": "\u0120fairy",
    "1784": "\u0120words",
    "1785": "\u0120amazing",
    "1786": "\u0120bath",
    "1787": "ich",
    "1788": "\u0120purple",
    "1789": "\u0120Z",
    "1790": "\u0120without",
    "1791": "ire",
    "1792": "\u0120bottle",
    "1793": "\u0120Billy",
    "1794": "\u0120gift",
    "1795": "\u0120grandma",
    "1796": "Fin",
    "1797": "used",
    "1798": "ons",
    "1799": "\u0120past",
    "1800": "\u0120money",
    "1801": "iver",
    "1802": "fort",
    "1803": "\u0120mail",
    "1804": "\u0120Gra",
    "1805": "\u0120barked",
    "1806": "\u0120wagged",
    "1807": "\u0120att",
    "1808": "chool",
    "1809": "\u0120monkey",
    "1810": "\u0120doctor",
    "1811": "unch",
    "1812": "\u0120brown",
    "1813": "\u0120moved",
    "1814": "ises",
    "1815": "\u0120asks",
    "1816": "\u0120getting",
    "1817": "\u0120closed",
    "1818": "\u0120whe",
    "1819": "\u0120welcome",
    "1820": "\u0120su",
    "1821": "\u0120candy",
    "1822": "\u0120school",
    "1823": "\u0120morning",
    "1824": "\u0120owner",
    "1825": "gg",
    "1826": "\u0120lon",
    "1827": "\u0120mother",
    "1828": "\u0120higher",
    "1829": "\u0120sitting",
    "1830": "\u0120treasure",
    "1831": ".\u00e2\u0122\u013f",
    "1832": "\u0120smo",
    "1833": "!\u00e2\u0122\u013f",
    "1834": "\u0120dangerous",
    "1835": "\u0120lonely",
    "1836": "\u0120Ch",
    "1837": "\u0120living",
    "1838": "\u0120apples",
    "1839": "ush",
    "1840": "\u0120shop",
    "1841": "ased",
    "1842": "\u0120strange",
    "1843": "vel",
    "1844": "\u0120shining",
    "1845": "\u0120road",
    "1846": "ere",
    "1847": "\u0120Tommy",
    "1848": "\u0120creat",
    "1849": "una",
    "1850": "\u0120paw",
    "1851": "\u0120ra",
    "1852": "ey",
    "1853": "\u0120shoes",
    "1854": "\u0120pre",
    "1855": "ible",
    "1856": "\u0120-",
    "1857": "\u0120stre",
    "1858": "\u0120talking",
    "1859": "althy",
    "1860": "\u0120caught",
    "1861": "\u0120egg",
    "1862": "ol",
    "1863": "\u0120pass",
    "1864": "me",
    "1865": "\u0120lake",
    "1866": "\u0120runs",
    "1867": "\u0120buck",
    "1868": "\u0120letter",
    "1869": "\u0120wings",
    "1870": "\u0120chee",
    "1871": "fish",
    "1872": "\u0120mad",
    "1873": "\u0120fan",
    "1874": "asket",
    "1875": "\u0120basket",
    "1876": "ass",
    "1877": "\u0120dragon",
    "1878": "app",
    "1879": "Mommy",
    "1880": "set",
    "1881": "cks",
    "1882": "\u0120stone",
    "1883": "\u0120thinks",
    "1884": "\u0120stand",
    "1885": "\u0120delicious",
    "1886": "\u0120nose",
    "1887": "\u0120puddle",
    "1888": "\u0120tom",
    "1889": "\u0120Bl",
    "1890": "\u0120Mimi",
    "1891": "\u0120belie",
    "1892": "\u0120farmer",
    "1893": "\u0120same",
    "1894": "\u0120years",
    "1895": "board",
    "1896": "\u0120teddy",
    "1897": "\u0120bat",
    "1898": "isk",
    "1899": "itch",
    "1900": "\u0120mine",
    "1901": "\u0120sear",
    "1902": "\u0120coat",
    "1903": "ches",
    "1904": "igh",
    "1905": "\u0120days",
    "1906": "\u0120bring",
    "1907": "\u0120gentle",
    "1908": "\u0120fit",
    "1909": "\u0120start",
    "1910": "\u0120finally",
    "1911": "\u0120whist",
    "1912": "\u0120cray",
    "1913": "igg",
    "1914": "\u0120scream",
    "1915": "\u0120kite",
    "1916": "\u0120pill",
    "1917": "phant",
    "1918": "arm",
    "1919": "\u0120vill",
    "1920": "\u0120cho",
    "1921": "\u0120singing",
    "1922": "ella",
    "1923": "sw",
    "1924": "ined",
    "1925": "\u0120tasty",
    "1926": "\u0120ph",
    "1927": "\u0120ben",
    "1928": "\u0120trou",
    "1929": "\u0120shell",
    "1930": "\u0120herself",
    "1931": "\u0120hoped",
    "1932": "\u0120answ",
    "1933": "\u0120wore",
    "1934": "\u0120swings",
    "1935": "sy",
    "1936": "\u0120hor",
    "1937": "\u0120belong",
    "1938": "Please",
    "1939": "\u0120push",
    "1940": "\u0120bush",
    "1941": "iskers",
    "1942": "\u0120carrot",
    "1943": "\u0120arri",
    "1944": "aughty",
    "1945": "\u0120teach",
    "1946": "bow",
    "1947": "ract",
    "1948": "\u0120naughty",
    "1949": "\u0120elephant",
    "1950": "\u0120dropped",
    "1951": "\u0120shap",
    "1952": "ier",
    "1953": "\u0120coll",
    "1954": "sc",
    "1955": "\u0120teac",
    "1956": "emy",
    "1957": "\u0120woke",
    "1958": "ball",
    "1959": "\u0120pile",
    "1960": "\u0120hiding",
    "1961": "\u0120cour",
    "1962": "isa",
    "1963": "erry",
    "1964": "\u0120touc",
    "1965": "\u0120min",
    "1966": "\u0120puppy",
    "1967": "'ll",
    "1968": "\u0120seem",
    "1969": "llie",
    "1970": "\u0120twins",
    "1971": "ama",
    "1972": "\u0120lunch",
    "1973": "\u0120bow",
    "1974": "\u0120sack",
    "1975": "\u0120pers",
    "1976": "\u0120course",
    "1977": "\u0120cheered",
    "1978": "\u0120shapes",
    "1979": "\u0120Jen",
    "1980": "\u0120grew",
    "1981": "fused",
    "1982": "\u0120rope",
    "1983": "\u0120village",
    "1984": "irth",
    "1985": "irthday",
    "1986": "\u0120juice",
    "1987": "ipped",
    "1988": "\u0120rainbow",
    "1989": "\u0120spin",
    "1990": "OK",
    "1991": "\u0120shook",
    "1992": "Jack",
    "1993": "\u0120spoon",
    "1994": "\u0120bench",
    "1995": "\u0120street",
    "1996": "\u0120fence",
    "1997": "\u0120cute",
    "1998": "\u0120Fred",
    "1999": "\u0120rob",
    "2000": "\u0120nut",
    "2001": "\u0120cheese",
    "2002": "\u0120prob",
    "2003": "\u0120touched",
    "2004": "idge",
    "2005": "col",
    "2006": "\u0120joy",
    "2007": "\u0120Whiskers",
    "2008": "\u0120arrived",
    "2009": "\u0120seed",
    "2010": "\u0120war",
    "2011": "\u0120teacher",
    "2012": "\u0120corn",
    "2013": "Good",
    "2014": "\u0120forever",
    "2015": "\u0120able",
    "2016": "\u0120bell",
    "2017": "\u0120few",
    "2018": "\u0120carry",
    "2019": "\u0120most",
    "2020": "\u0120plane",
    "2021": "\u0120Blue",
    "2022": "lem",
    "2023": "\u0120eas",
    "2024": "\u0120sounds",
    "2025": "lla",
    "2026": "\u0120des",
    "2027": "\u0120spo",
    "2028": "\u0120problem",
    "2029": "\u0120birthday",
    "2030": "\u0120power",
    "2031": "\u0120inc",
    "2032": "umb",
    "2033": "br",
    "2034": "\u010a\u0120",
    "2035": "\u0120bugs",
    "2036": "ilk",
    "2037": "\u0120wonderful",
    "2038": "\u0120dolls",
    "2039": "\u0120busy",
    "2040": "ato",
    "2041": "irp",
    "2042": "eb",
    "2043": "\u0120wra",
    "2044": "\u0120promise",
    "2045": "\u0120Thank",
    "2046": "\u0120feels",
    "2047": "ian",
    "2048": "\u0120Emma",
    "2049": "eter",
    "2050": "\u0120bread",
    "2051": "\u0120neck",
    "2052": "Finally",
    "2053": "\u0120milk",
    "2054": "\u0120robot",
    "2055": "\u0120rec",
    "2056": "\u0120shy",
    "2057": "ountain",
    "2058": "\u0120kiss",
    "2059": "irt",
    "2060": "\u0120heart",
    "2061": "\u0120band",
    "2062": "\u0120cave",
    "2063": "\u0120pocket",
    "2064": "ub",
    "2065": "\u0120helpful",
    "2066": "gly",
    "2067": "\u0120slowly",
    "2068": "\u0120believe",
    "2069": "\u0120shake",
    "2070": "umpy",
    "2071": "eared",
    "2072": "\u0120patient",
    "2073": "\u0120pop",
    "2074": "\u0120ob",
    "2075": "arp",
    "2076": "\u0120live",
    "2077": "\u0120storm",
    "2078": "\u0120holding",
    "2079": "\u0120ugly",
    "2080": "\u0120towards",
    "2081": "\u0120upset",
    "2082": "\u0120turt",
    "2083": "\u0120shr",
    "2084": "adow",
    "2085": "\u0120cover",
    "2086": "\u0120kitten",
    "2087": "ost",
    "2088": "\u0120Remy",
    "2089": "\u0120sharp",
    "2090": "\u0120disapp",
    "2091": "\u0120stories",
    "2092": "\u0120suc",
    "2093": "\u0120honey",
    "2094": "ove",
    "2095": "\u0120Bella",
    "2096": "read",
    "2097": "\u0120noises",
    "2098": "\u0120Le",
    "2099": "\u0120cir",
    "2100": "\u0120balls",
    "2101": "\u0120spark",
    "2102": "\u0120gray",
    "2103": "\u0120dist",
    "2104": "\u0120dirt",
    "2105": "oggy",
    "2106": "\u0120late",
    "2107": "\u0120driver",
    "2108": "\u0120seat",
    "2109": "\u0120bucket",
    "2110": "\u0120meet",
    "2111": "\u0120young",
    "2112": "\u0120amazed",
    "2113": "\u0120turtle",
    "2114": "alm",
    "2115": "\u0120spid",
    "2116": "\u0120treats",
    "2117": "\u0120magical",
    "2118": "unt",
    "2119": "ator",
    "2120": "\u0120glow",
    "2121": "\u0120seek",
    "2122": "\u0120zoom",
    "2123": "\u0120lem",
    "2124": "\u0120sandw",
    "2125": "fortable",
    "2126": "umber",
    "2127": "\u0120trip",
    "2128": "\u0120mist",
    "2129": "ourn",
    "2130": "\u0120splas",
    "2131": "\u0120mark",
    "2132": "\u0120journ",
    "2133": "\u0120fold",
    "2134": "\u0120mach",
    "2135": "\u0120puzz",
    "2136": "\u0120part",
    "2137": "ling",
    "2138": "\u0120horse",
    "2139": "\u0120organ",
    "2140": "\u0120wild",
    "2141": "\u0120princess",
    "2142": "pping",
    "2143": "oose",
    "2144": "\u0120cookie",
    "2145": "Sure",
    "2146": "ens",
    "2147": "\u0120hugs",
    "2148": "\u0120Mark",
    "2149": "\u0120taking",
    "2150": "ung",
    "2151": "\u0120wheel",
    "2152": "epend",
    "2153": "\u0120cloth",
    "2154": "\u0120Lisa",
    "2155": "\u0120sug",
    "2156": "\u0120instead",
    "2157": "\u0120bubb",
    "2158": "\u0120string",
    "2159": "\u0120net",
    "2160": "\u0120drove",
    "2161": "iling",
    "2162": "\u0120rude",
    "2163": "\u0120huge",
    "2164": "\u0120Jim",
    "2165": "\u0120coin",
    "2166": "\u0120stars",
    "2167": "\u0120fighting",
    "2168": "Be",
    "2169": "\u0120spicy",
    "2170": "\u0120lucky",
    "2171": "Of",
    "2172": "\u0120craw",
    "2173": "Hey",
    "2174": "\u0120bone",
    "2175": "\u0120inv",
    "2176": "\u0120Grandma",
    "2177": "ors",
    "2178": "not",
    "2179": "\u0120ca",
    "2180": "pper",
    "2181": "\u0120forget",
    "2182": "up",
    "2183": "\u0120di",
    "2184": "aur",
    "2185": "\u0120sal",
    "2186": "\u0120Finally",
    "2187": "\u0120cannot",
    "2188": "\u0120whistle",
    "2189": "\u0120card",
    "2190": "\u0120sick",
    "2191": "\u0120path",
    "2192": "\u0120cou",
    "2193": "\u0120spider",
    "2194": "\u0120wide",
    "2195": "Lila",
    "2196": "\u0120foot",
    "2197": "\u0120snowman",
    "2198": "\u0120songs",
    "2199": "\u0120life",
    "2200": "\u0120pillow",
    "2201": "ize",
    "2202": "ular",
    "2203": "\u0120Just",
    "2204": "Later",
    "2205": "est",
    "2206": "\u0120Ann",
    "2207": "ert",
    "2208": "\u0120fixed",
    "2209": "\u0120giant",
    "2210": "oph",
    "2211": "rill",
    "2212": "\u0120nod",
    "2213": "\u0120boss",
    "2214": "\u0120last",
    "2215": "\u0120comes",
    "2216": "\u0120joke",
    "2217": "\u0120moon",
    "2218": "\u0120taste",
    "2219": "den",
    "2220": "\u0120machine",
    "2221": "\u0120grumpy",
    "2222": "\u0120wave",
    "2223": "\u0120thin",
    "2224": "\u0120drive",
    "2225": "\u0120cart",
    "2226": "\u0120ash",
    "2227": "\u0120ser",
    "2228": "\u0120grab",
    "2229": "\u0120peace",
    "2230": "lower",
    "2231": "\u0120daddy",
    "2232": "\u0120On",
    "2233": "\u0120Leo",
    "2234": "ery",
    "2235": "\u0120sel",
    "2236": "\u0120shelf",
    "2237": "\u0120hidden",
    "2238": "erest",
    "2239": "\u0120suddenly",
    "2240": "\u0120wasn",
    "2241": "\u0120write",
    "2242": "\u0120landed",
    "2243": "\u0120confused",
    "2244": "\u0120ring",
    "2245": "\u0120change",
    "2246": "\u0120worm",
    "2247": "\u0120interest",
    "2248": "\u0120chased",
    "2249": "oop",
    "2250": "\u0120fruits",
    "2251": "\u0120sour",
    "2252": "ity",
    "2253": "\u0120myster",
    "2254": "\u0120bark",
    "2255": "\u0120rad",
    "2256": "\u0120smooth",
    "2257": "\u0120Come",
    "2258": "\u0120adventures",
    "2259": "\u0120val",
    "2260": "\u0120stepped",
    "2261": "\u0120fle",
    "2262": "ope",
    "2263": "\u0120oven",
    "2264": "\u0120takes",
    "2265": "\u0120missed",
    "2266": "\u0120selfish",
    "2267": "kin",
    "2268": "\u0120sheep",
    "2269": "\u0120messy",
    "2270": "To",
    "2271": "\u0120across",
    "2272": "\u0120ent",
    "2273": "\u0120exp",
    "2274": "to",
    "2275": "\u0120ce",
    "2276": "\u0120later",
    "2277": "elly",
    "2278": "\u0120N",
    "2279": "ife",
    "2280": "\u0120sticks",
    "2281": "\u0120tie",
    "2282": "St",
    "2283": "ever",
    "2284": "\u0120Luna",
    "2285": "\u0120step",
    "2286": "\u0120bought",
    "2287": "\u0120drew",
    "2288": "\u0120tea",
    "2289": "pect",
    "2290": "\u0120ban",
    "2291": "irpy",
    "2292": "box",
    "2293": "?\u00e2\u0122\u013f",
    "2294": "\u0120wash",
    "2295": "\u0120lay",
    "2296": "\u0120pour",
    "2297": "\u0120beak",
    "2298": "ose",
    "2299": "\u0120jog",
    "2300": "\u0120grate",
    "2301": "\u0120ducks",
    "2302": "\u0120spe",
    "2303": "\u0120legs",
    "2304": "ugg",
    "2305": "\u0120fil",
    "2306": "\u0120Bu",
    "2307": "\u0120emp",
    "2308": "mer",
    "2309": "\u0120hope",
    "2310": "\u0120empty",
    "2311": "\u0120slid",
    "2312": "\u0120feather",
    "2313": "\u0120sleepy",
    "2314": "\u0120drum",
    "2315": "amed",
    "2316": "ars",
    "2317": "eth",
    "2318": "\u0120zoo",
    "2319": "\u0120pan",
    "2320": "\u0120phone",
    "2321": "\u0120grateful",
    "2322": "\u0120fing",
    "2323": "ions",
    "2324": "\u0120lemon",
    "2325": "let",
    "2326": "\u0120Cat",
    "2327": "\u0120clever",
    "2328": "\u0120Molly",
    "2329": "\u0120smelly",
    "2330": "\u0120imag",
    "2331": "\u0120splash",
    "2332": "\u0120interesting",
    "2333": "\u0120Jill",
    "2334": "\u0120save",
    "2335": "\u0120chick",
    "2336": "\u0120calm",
    "2337": "\u0120med",
    "2338": "\u0120watching",
    "2339": "Soon",
    "2340": "izzy",
    "2341": "izz",
    "2342": "\u0120plate",
    "2343": "\u0120ign",
    "2344": "yard",
    "2345": "\u0120clouds",
    "2346": "\u0120banan",
    "2347": "\u0120line",
    "2348": "\u0120faces",
    "2349": "\u0120ba",
    "2350": "\u0120act",
    "2351": "\u0120lift",
    "2352": "\u0120though",
    "2353": "\u0120wolf",
    "2354": "\u0120backyard",
    "2355": "wel",
    "2356": "\u0120seemed",
    "2357": "\u0120dogs",
    "2358": "\u0120spray",
    "2359": "Come",
    "2360": "\u0120prot",
    "2361": "\u0120whole",
    "2362": "\u0120mot",
    "2363": "\u0120fancy",
    "2364": "\u0120Daddy",
    "2365": "\u0120quest",
    "2366": "\u0120arms",
    "2367": "\u0120puzzle",
    "2368": "\u0120healthy",
    "2369": "\u0120supp",
    "2370": "ward",
    "2371": "\u0120finish",
    "2372": "erly",
    "2373": "\u0120along",
    "2374": "llo",
    "2375": "\u0120rocket",
    "2376": "\u0120explain",
    "2377": "dge",
    "2378": "\u0120easy",
    "2379": "\u0120jewel",
    "2380": "ont",
    "2381": "\u0120pract",
    "2382": "\u0120jelly",
    "2383": "\u0120Chirpy",
    "2384": "\u0120tid",
    "2385": "\u0120fake",
    "2386": "\u0120crayons",
    "2387": "\u0120wondered",
    "2388": "\u0120maybe",
    "2389": "\u0120scar",
    "2390": "\u0120ship",
    "2391": "\u0120nothing",
    "2392": "onest",
    "2393": "\u0120emb",
    "2394": "iger",
    "2395": "\u0120pool",
    "2396": "\u0120longer",
    "2397": "\u0120anyone",
    "2398": "\u0120Be",
    "2399": "\u0120Jerry",
    "2400": "ually",
    "2401": "\u0120front",
    "2402": "\u0120working",
    "2403": "\u0120gives",
    "2404": "irr",
    "2405": "\u0120pack",
    "2406": "\u0120such",
    "2407": "\u0120Bunny",
    "2408": "ocked",
    "2409": "ment",
    "2410": "\u0120bossy",
    "2411": "\u0120Doggy",
    "2412": "\u0120trouble",
    "2413": "\u0120smelled",
    "2414": "\u0120saved",
    "2415": "\u0120pin",
    "2416": "rass",
    "2417": "\u0120neigh",
    "2418": "arrass",
    "2419": "iting",
    "2420": "\u0120honest",
    "2421": "\u0120av",
    "2422": "arge",
    "2423": "\u0120embarrass",
    "2424": "\u0120van",
    "2425": "\u0120forgive",
    "2426": "\u0120tidy",
    "2427": "\u0120weak",
    "2428": "urse",
    "2429": "\u0120puts",
    "2430": "unk",
    "2431": "\u0120kick",
    "2432": "\u0120shirt",
    "2433": "\u0120With",
    "2434": "\u0120mind",
    "2435": "\u0120Ollie",
    "2436": "\u0120neighb",
    "2437": "\u0120plants",
    "2438": "\u0120sol",
    "2439": "\u0120Momo",
    "2440": "\u0120gently",
    "2441": "\u0120cozy",
    "2442": "orrow",
    "2443": "ming",
    "2444": "\u0120explor",
    "2445": "sp",
    "2446": "\u0120mistake",
    "2447": "\u0120yog",
    "2448": "oc",
    "2449": "oomy",
    "2450": "\u0120pointed",
    "2451": "\u0120lad",
    "2452": "\u0120af",
    "2453": "\u0120stood",
    "2454": "ork",
    "2455": "\u0120onto",
    "2456": "\u0120waiting",
    "2457": "\u0120jumping",
    "2458": "\u0120prince",
    "2459": "\u0120cross",
    "2460": "\u0120lock",
    "2461": "\u0120cheer",
    "2462": "\u0120queen",
    "2463": "\u0120Why",
    "2464": "\u0120Mary",
    "2465": "\u0120wing",
    "2466": "ones",
    "2467": "we",
    "2468": "\u0120large",
    "2469": "\u0120lovely",
    "2470": "ult",
    "2471": "\u0120sur",
    "2472": "\u0120ret",
    "2473": "And",
    "2474": "\u0120deer",
    "2475": "\u0120chew",
    "2476": "\u0120couch",
    "2477": "\u0120bal",
    "2478": "aughter",
    "2479": "\u0120stret",
    "2480": "era",
    "2481": "\u0120Their",
    "2482": "\u0120places",
    "2483": "\u0120My",
    "2484": "\u0120ladder",
    "2485": "oof",
    "2486": "\u0120return",
    "2487": "raid",
    "2488": "\u0120ants",
    "2489": "\u0120dish",
    "2490": "\u0120afraid",
    "2491": "\u0120cleaned",
    "2492": "\u0120tomorrow",
    "2493": "\u0120building",
    "2494": "\u0120sandwich",
    "2495": "\u0120person",
    "2496": "Sally",
    "2497": "ned",
    "2498": "\u0120pretended",
    "2499": "\u0120bounce",
    "2500": "\u0120wip",
    "2501": "gest",
    "2502": "\u0120match",
    "2503": "\u0120rich",
    "2504": "uce",
    "2505": "\u0120pizz",
    "2506": "\u0120gather",
    "2507": "\u0120search",
    "2508": "\u0120boring",
    "2509": "oman",
    "2510": "\u0120Somet",
    "2511": "\u0120teeth",
    "2512": "\u0120hum",
    "2513": "Kitty",
    "2514": "My",
    "2515": "aced",
    "2516": "\u0120daughter",
    "2517": "\u0120woman",
    "2518": "\u0120scarf",
    "2519": "\u0120goes",
    "2520": "\u0120Together",
    "2521": "\u0120law",
    "2522": "\u0120stra",
    "2523": "\u0120swimming",
    "2524": "\u0120furry",
    "2525": "\u0120splashed",
    "2526": "\u0120pri",
    "2527": "\u0120loves",
    "2528": "\u0120true",
    "2529": "\u0120screamed",
    "2530": "\u0120lazy",
    "2531": "\u0120gen",
    "2532": "\u0120answer",
    "2533": "\u0120number",
    "2534": "\u0120eag",
    "2535": "\u0120ashamed",
    "2536": "\u0120pizza",
    "2537": "aw",
    "2538": "\u0120appeared",
    "2539": "\u0120fear",
    "2540": "\u0120nearby",
    "2541": "\u0120powerful",
    "2542": "\u0120flag",
    "2543": "\u0120St",
    "2544": "\u0120hang",
    "2545": "vous",
    "2546": "\u0120clown",
    "2547": "ek",
    "2548": "\u0120chase",
    "2549": "\u0120motor",
    "2550": "\u0120wand",
    "2551": "\u0120TV",
    "2552": "\u0120rub",
    "2553": "\u0120success",
    "2554": "\u0120chocol",
    "2555": "\u0120If",
    "2556": "\u0120creative",
    "2557": "\u0120trust",
    "2558": "\u0120wearing",
    "2559": "\u0120noisy",
    "2560": "\u0120matter",
    "2561": "pa",
    "2562": "\u0120dig",
    "2563": "\u0120hello",
    "2564": "\u0120ner",
    "2565": "\u0120tool",
    "2566": "\u0120saf",
    "2567": "\u0120Bird",
    "2568": "ado",
    "2569": "\u0120nervous",
    "2570": "elp",
    "2571": "\u0120test",
    "2572": "\u0120smiling",
    "2573": "\u0120sold",
    "2574": "icked",
    "2575": "oppy",
    "2576": "osaur",
    "2577": "\u0120circle",
    "2578": "mb",
    "2579": "\u0120map",
    "2580": "\u0120drank",
    "2581": "\u0120class",
    "2582": "\u0120tries",
    "2583": "\u0120chocolate",
    "2584": "\u0120Please",
    "2585": "\u0120impress",
    "2586": "\u0120knee",
    "2587": "\u0120gener",
    "2588": "\u0120dinosaur",
    "2589": "\u0120polite",
    "2590": "\u0120mirr",
    "2591": "\u0120Bobby",
    "2592": "\u0120Tiny",
    "2593": "\u0120balloons",
    "2594": "\u0120gold",
    "2595": "\u0120rare",
    "2596": "\u0120protect",
    "2597": "\u0120cand",
    "2598": "Stop",
    "2599": "\u0120carried",
    "2600": "\u0120Go",
    "2601": "ensive",
    "2602": "\u0120ap",
    "2603": "\u0120shadow",
    "2604": "\u0120mirror",
    "2605": "\u0120Don",
    "2606": "\u0120bald",
    "2607": "\u0120gun",
    "2608": "ina",
    "2609": "\u0120expensive",
    "2610": "\u0120reg",
    "2611": "iff",
    "2612": "\u0120mysterious",
    "2613": "\u0120Sp",
    "2614": "\u0120pump",
    "2615": "\u0120note",
    "2616": "\u0120hero",
    "2617": "\u0120march",
    "2618": "\u0120har",
    "2619": "arl",
    "2620": "\u0120icy",
    "2621": "\u0120respect",
    "2622": "\u0120weird",
    "2623": "\u0120snee",
    "2624": "\u0120cri",
    "2625": "\u0120gate",
    "2626": "\u0120soap",
    "2627": "rag",
    "2628": "ute",
    "2629": "issors",
    "2630": "\u0120these",
    "2631": "\u0120poor",
    "2632": "\u0120towel",
    "2633": "\u0120whale",
    "2634": "\u0120feet",
    "2635": "\u0120tape",
    "2636": "\u0120dizzy",
    "2637": "itter",
    "2638": "\u0120generous",
    "2639": "ndpa",
    "2640": "\u0120pres",
    "2641": "\u0120Benny",
    "2642": "nic",
    "2643": "\u0120disco",
    "2644": "Help",
    "2645": "ventually",
    "2646": "\u0120picnic",
    "2647": "\u0120mic",
    "2648": "\u0120lead",
    "2649": "\u0120sque",
    "2650": "\u0120embarrassed",
    "2651": "\u0120journey",
    "2652": "\u0120sugar",
    "2653": "isp",
    "2654": "scape",
    "2655": "\u0120boot",
    "2656": "\u0120tent",
    "2657": "\u0120peaceful",
    "2658": "\u0120fat",
    "2659": "\u0120Bear",
    "2660": "\u0120scissors",
    "2661": "\u0120tasted",
    "2662": "\u0120yelled",
    "2663": "Tommy",
    "2664": "\u0120tick",
    "2665": "\u0120mel",
    "2666": "\u0120brush",
    "2667": "\u0120dancing",
    "2668": "ness",
    "2669": "\u0120glue",
    "2670": "\u0120hur",
    "2671": "\u0120rough",
    "2672": "\u0120clap",
    "2673": "\u0120bridge",
    "2674": "ote",
    "2675": "\u0120decor",
    "2676": "\u0120closet",
    "2677": "\u0120crown",
    "2678": "\u0120stir",
    "2679": "ual",
    "2680": "imp",
    "2681": "\u0120print",
    "2682": "\u0120Sometimes",
    "2683": "owed",
    "2684": "airs",
    "2685": "\u0120How",
    "2686": "ume",
    "2687": "\u0120cap",
    "2688": "\u0120lamp",
    "2689": "\u0120vase",
    "2690": "\u0120scare",
    "2691": "lebr",
    "2692": "\u0120relie",
    "2693": "lves",
    "2694": "any",
    "2695": "\u0120eld",
    "2696": "\u0120tele",
    "2697": "\u0120celebr",
    "2698": "\u0120gigg",
    "2699": "\u0120whisp",
    "2700": "\u0120log",
    "2701": "\u0120sco",
    "2702": "\u0120blow",
    "2703": "\u0120painted",
    "2704": "\u0120Ducky",
    "2705": "\u0120pay",
    "2706": "erries",
    "2707": "\u0120wis",
    "2708": "\u0120berries",
    "2709": "\u0120mixed",
    "2710": "\u0120spread",
    "2711": "\u0120wouldn",
    "2712": "\u0120cage",
    "2713": "\u0120bake",
    "2714": "rob",
    "2715": "getable",
    "2716": "\u0120mountain",
    "2717": "\u0120adm",
    "2718": "\u0120drawing",
    "2719": "\u0120become",
    "2720": "\u0120famous",
    "2721": "\u0120knocked",
    "2722": "\u0120bean",
    "2723": "\u0120norm",
    "2724": "\u0120vegetable",
    "2725": "asp",
    "2726": "\u0120kicked",
    "2727": "ustr",
    "2728": "\u0120shark",
    "2729": "ser",
    "2730": "\u0120incred",
    "2731": "\u0120lose",
    "2732": "\u0120normal",
    "2733": "\u0120wrap",
    "2734": "ced",
    "2735": "\u0120group",
    "2736": "\u0120thick",
    "2737": "\u01203",
    "2738": "\u0120fine",
    "2739": "\u0120glass",
    "2740": "\u0120ignor",
    "2741": "\u0120clock",
    "2742": "\u0120team",
    "2743": "\u0120elderly",
    "2744": "\u0120clear",
    "2745": "\u0120corner",
    "2746": "\u0120frustr",
    "2747": "\u0120mighty",
    "2748": "robe",
    "2749": "\u0120cone",
    "2750": "\u0120incredible",
    "2751": "\u0120Br",
    "2752": "ighed",
    "2753": "Dad",
    "2754": "\u0120moms",
    "2755": "\u0120balance",
    "2756": "\u0120sock",
    "2757": "\u0120space",
    "2758": "\u0120jam",
    "2759": "ragile",
    "2760": "\u0120fright",
    "2761": "\u0120organized",
    "2762": "\u0120branches",
    "2763": "\u0120roar",
    "2764": "port",
    "2765": "\u0120sword",
    "2766": "alous",
    "2767": "\u0120Mama",
    "2768": "\u0120guess",
    "2769": "\u0120fool",
    "2770": "\u0120sell",
    "2771": "\u0120feed",
    "2772": "\u0120Some",
    "2773": "\u0120which",
    "2774": "\u0120horn",
    "2775": "\u0120present",
    "2776": "\u0120jealous",
    "2777": "\u0120yarn",
    "2778": "ony",
    "2779": "\u0120fragile",
    "2780": "\u0120burn",
    "2781": "\u0120understood",
    "2782": "\u0120mis",
    "2783": "\u0120stubb",
    "2784": "\u0120ter",
    "2785": "\u0120frustrated",
    "2786": "Where",
    "2787": "ray",
    "2788": "\u0120hose",
    "2789": "cient",
    "2790": "\u0120spent",
    "2791": "\u0120shoe",
    "2792": "\u0120taught",
    "2793": "\u0120stubborn",
    "2794": "\u0120twist",
    "2795": "\u0120creature",
    "2796": "\u0120chest",
    "2797": "\u0120spoiled",
    "2798": "\u0120relieved",
    "2799": "\u0120ancient",
    "2800": "ique",
    "2801": "\u0120wake",
    "2802": "\u0120fier",
    "2803": "\u0120pray",
    "2804": "\u0120fierce",
    "2805": "\u0120eggs",
    "2806": "\u0120cab",
    "2807": "\u0120terri",
    "2808": "\u0120barn",
    "2809": "\u0120pumpkin",
    "2810": "\u0120comfortable",
    "2811": "\u0120ord",
    "2812": "ym",
    "2813": "\u0120frightened",
    "2814": "orry",
    "2815": "\u0120toug",
    "2816": "\u0120unique",
    "2817": "\u0120measure",
    "2818": "\u0120goat",
    "2819": "\u0120wagon",
    "2820": "\u0120unus",
    "2821": "\u0120breath",
    "2822": "\u0120foolish",
    "2823": "\u0120useful",
    "2824": "\u0120exploring",
    "2825": "dle",
    "2826": "\u0120straw",
    "2827": "\u0120unusual",
    "2828": "\u0120dug",
    "2829": "\u0120clay",
    "2830": "\u0120discover",
    "2831": "\u0120tomato",
    "2832": "\u0120Pe",
    "2833": "\u0120dead",
    "2834": "\u0120finding",
    "2835": "\u0120police",
    "2836": "\u0120wrote",
    "2837": "\u0120clum",
    "2838": "\u0120exam",
    "2839": "lace",
    "2840": "\u0120waves",
    "2841": "\u0120square",
    "2842": "\u0120hears",
    "2843": "\u0120cabin",
    "2844": "\u0120tells",
    "2845": "\u0120necklace",
    "2846": "\u0120dull",
    "2847": "\u0120clumsy",
    "2848": "\u0120tough",
    "2849": "\u0120bubbles",
    "2850": "\u0120nosy",
    "2851": "kn",
    "2852": "\u0120searched",
    "2853": "Together",
    "2854": "\u0120washed",
    "2855": "\u0120bathroom",
    "2856": "\u0120paws",
    "2857": "bby",
    "2858": "ond",
    "2859": "unn",
    "2860": "anged",
    "2861": "\u0120board",
    "2862": "fic",
    "2863": "known",
    "2864": "\u0120asking",
    "2865": "\u0120crazy",
    "2866": "\u0120thankful",
    "2867": "\u0120sunf",
    "2868": "\u0120bitter",
    "2869": "yal",
    "2870": "\u0120pir",
    "2871": "berry",
    "2872": "alk",
    "2873": "\u0120ind",
    "2874": "\u0120diffic",
    "2875": "\u0120rose",
    "2876": "cil",
    "2877": "\u0120swan",
    "2878": "\u0120bloom",
    "2879": "\u0120unknown",
    "2880": "\u0120Ella",
    "2881": "\u0120covered",
    "2882": "\u0120difficult",
    "2883": "\u0120add",
    "2884": "\u0120pencil",
    "2885": "\u0120finger",
    "2886": "\u0120ham",
    "2887": "\u0120hoop",
    "2888": "\u0120jet",
    "2889": "\u0120witch",
    "2890": "\u0120drop",
    "2891": "Me",
    "2892": "\u0120'",
    "2893": "\u0120chicken",
    "2894": "\u0120gloomy",
    "2895": "apped",
    "2896": "\u0120loyal",
    "2897": "als",
    "2898": "Here",
    "2899": "\u0120wealthy",
    "2900": "com",
    "2901": "light",
    "2902": "\u0120unl",
    "2903": "\u0120cats",
    "2904": "\u0120ending",
    "2905": "\u0120guit",
    "2906": "bled",
    "2907": "shine",
    "2908": "\u0120dove",
    "2909": "\u0120joined",
    "2910": "\u0120cher",
    "2911": "anut",
    "2912": "\u0120mov",
    "2913": "\u0120terrible",
    "2914": "\u0120yours",
    "2915": "iant",
    "2916": "\u0120U",
    "2917": "\u0120Rex",
    "2918": "\u0120salad",
    "2919": "\u0120Andy",
    "2920": "\u0120nuts",
    "2921": "\u0120rat",
    "2922": "ground",
    "2923": "\u0120tiger",
    "2924": "\u0120potato",
    "2925": "\u0120mask",
    "2926": "xible",
    "2927": "selves",
    "2928": "\u0120value",
    "2929": "\u0120changed",
    "2930": "\u0120moving",
    "2931": "\u0120exciting",
    "2932": "ormous",
    "2933": "\u0120Many",
    "2934": "\u0120body",
    "2935": "\u0120Tr",
    "2936": "\u0120toast",
    "2937": "\u0120record",
    "2938": "erp",
    "2939": "\u0120zip",
    "2940": "\u0120disg",
    "2941": "\u0120cheap",
    "2942": "\u0120guitar",
    "2943": "irsty",
    "2944": "\u0120knowing",
    "2945": "\u0120adventur",
    "2946": "\u0120yourself",
    "2947": "\u0120enormous",
    "2948": "\u0120hairy",
    "2949": "Every",
    "2950": "\u0120shoot",
    "2951": "\u0120Brown",
    "2952": "\u0120bored",
    "2953": "\u0120pepper",
    "2954": "\u0120remind",
    "2955": "ory",
    "2956": "land",
    "2957": "\u0120acorn",
    "2958": "\u0120adventurous",
    "2959": "\u0120sunshine",
    "2960": "\u0120smaller",
    "2961": "\u0120stuff",
    "2962": "\u0120hats",
    "2963": "\u0120solve",
    "2964": "\u0120Jimmy",
    "2965": "\u0120flexible",
    "2966": "\u0120cost",
    "2967": "rilliant",
    "2968": "\u0120knife",
    "2969": "\u0120perform",
    "2970": "\u0120snacks",
    "2971": "\u0120nods",
    "2972": "\u0120shore",
    "2973": "\u0120brilliant",
    "2974": "\u0120thirsty",
    "2975": "\u0120delicate",
    "2976": "\u0120frown",
    "2977": "\u0120disgust",
    "2978": "\u0120collect",
    "2979": "\u0120stri",
    "2980": "\u0120seeds",
    "2981": "\u0120counted",
    "2982": "\u0120asleep",
    "2983": "\u0120banana",
    "2984": "reen",
    "2985": "\u0120mailbox",
    "2986": "iness",
    "2987": "\u0120dough",
    "2988": "\u0120trick",
    "2989": "\u0120neighbor",
    "2990": "ungle",
    "2991": "\u0120heal",
    "2992": "live",
    "2993": "Who",
    "2994": "\u0120stage",
    "2995": "ident",
    "2996": "\u0120market",
    "2997": "\u0120cube",
    "2998": "\u0120stat",
    "2999": "\u0120jungle",
    "3000": "\u0120squee",
    "3001": "mbre",
    "3002": "\u0120explained",
    "3003": "ates",
    "3004": "\u0120umbre",
    "3005": "\u0120disgusting",
    "3006": "Jim",
    "3007": "fted",
    "3008": "\u0120lab",
    "3009": "\u0120jolly",
    "3010": "\u0120flash",
    "3011": "und",
    "3012": "\u0120fridge",
    "3013": "inal",
    "3014": "pid",
    "3015": "ilt",
    "3016": "\u0120crane",
    "3017": "corn",
    "3018": "\u0120suit",
    "3019": "\u0120rh",
    "3020": "iddle",
    "3021": "\u0120sunflower",
    "3022": "\u0120times",
    "3023": "\u0120Al",
    "3024": "erpill",
    "3025": "\u0120caterpill",
    "3026": "\u0120relax",
    "3027": "\u0120shiver",
    "3028": "\u0120four",
    "3029": "\u0120island",
    "3030": "iginal",
    "3031": "\u0120harm",
    "3032": "ict",
    "3033": "\u0120While",
    "3034": "ying",
    "3035": "\u0120stupid",
    "3036": "\u0120medic",
    "3037": "\u0120Instead",
    "3038": "\u0120comb",
    "3039": "\u0120goose",
    "3040": "\u0120cro",
    "3041": "edient",
    "3042": "\u0120Will",
    "3043": "\u0120stove",
    "3044": "If",
    "3045": "Are",
    "3046": "\u0120independ",
    "3047": "Mum",
    "3048": "most",
    "3049": "\u0120spring",
    "3050": "\u0120gem",
    "3051": "\u0120batter",
    "3052": "\u0120sighed",
    "3053": "\u0120vegetables",
    "3054": "\u0120stones",
    "3055": "pes",
    "3056": "\u0120shine",
    "3057": "How",
    "3058": "\u0120medicine",
    "3059": "\u0120depend",
    "3060": "\u0120rug",
    "3061": "\u0120Your",
    "3062": "\u0120careless",
    "3063": "\u0120original",
    "3064": "\u0120stamp",
    "3065": "\u0120gar",
    "3066": "\u0120cries",
    "3067": "Inside",
    "3068": "gu",
    "3069": "\u0120carrots",
    "3070": "\u0120scr",
    "3071": "\u0120successful",
    "3072": "\u0120sauce",
    "3073": "\u0120jeep",
    "3074": "\u0120popcorn",
    "3075": "\u0120meal",
    "3076": "\u0120obedient",
    "3077": "\u0120almost",
    "3078": "\u0120middle",
    "3079": "\u0120magn",
    "3080": "\u0120study",
    "3081": "\u0120independent",
    "3082": "\u0120fearful",
    "3083": "\u0120jack",
    "3084": "met",
    "3085": "inky",
    "3086": "Sorry",
    "3087": "\u0120Sammy",
    "3088": "\u0120escape",
    "3089": "\u0120caterpillar",
    "3090": "\u0120serious",
    "3091": "\u0120peanut",
    "3092": "\u0120bedroom",
    "3093": "\u0120eager",
    "3094": "aken",
    "3095": "\u0120gets",
    "3096": "\u0120parrot",
    "3097": "\u0120statue",
    "3098": "\u0120helmet",
    "3099": "\u0120pebb",
    "3100": "\u0120No",
    "3101": "\u0120fountain",
    "3102": "\u0120raven",
    "3103": "\u0120ang",
    "3104": "\u0120pasta",
    "3105": "\u0120umbrella",
    "3106": "\u0120compet",
    "3107": "There",
    "3108": "\u0120jacket",
    "3109": "\u0120belonged",
    "3110": "\u0120dest",
    "3111": "\u0120filthy",
    "3112": "\u0120design",
    "3113": "\u0120borrow",
    "3114": "\u0120cam",
    "3115": "erable",
    "3116": "\u0120houses",
    "3117": "\u0120prize",
    "3118": "\u0120hay",
    "3119": "\u0120brace",
    "3120": "\u0120standing",
    "3121": "\u0120miserable",
    "3122": "\u0120raced",
    "3123": "\u0120taken",
    "3124": "ages",
    "3125": "\u0120fork",
    "3126": "\u0120crayon",
    "3127": "\u0120painting",
    "3128": "io",
    "3129": "\u0120triang",
    "3130": "\u0120impressive",
    "3131": "\u0120choose",
    "3132": "\u0120fig",
    "3133": "\u0120tied",
    "3134": "iable",
    "3135": "\u0120spotted",
    "3136": "\u0120lifted",
    "3137": "\u0120slipped",
    "3138": "ours",
    "3139": "\u0120tank",
    "3140": "\u0120thoughtful",
    "3141": "\u0120dependable",
    "3142": "\u0120steal",
    "3143": "\u0120garage",
    "3144": "enny",
    "3145": "\u0120built",
    "3146": "\u0120mush",
    "3147": "\u0120er",
    "3148": "ipe",
    "3149": "\u0120mole",
    "3150": "\u0120crawled",
    "3151": "\u0120scale",
    "3152": "\u0120boats",
    "3153": "\u0120pian",
    "3154": "\u0120pant",
    "3155": "\u0120hammer",
    "3156": "\u0120bottom",
    "3157": "lph",
    "3158": "\u0120cheerful",
    "3159": "\u0120using",
    "3160": "\u0120smoke",
    "3161": "\u0120picks",
    "3162": "\u0120moder",
    "3163": "berries",
    "3164": "\u0120shows",
    "3165": "rn",
    "3166": "\u0120piano",
    "3167": "\u0120magnet",
    "3168": "dile",
    "3169": "codile",
    "3170": "\u0120hurts",
    "3171": "inary",
    "3172": "\u0120ref",
    "3173": "\u0120crack",
    "3174": "\u0120eng",
    "3175": "\u0120aunt",
    "3176": "\u0120melon",
    "3177": "\u0120waff",
    "3178": "\u0120modern",
    "3179": "\u0120dolph",
    "3180": "unnel",
    "3181": "cream",
    "3182": "pack",
    "3183": "\u0120tunnel",
    "3184": "oin",
    "3185": "\u0120arrow",
    "3186": "\u0120reliable",
    "3187": "\u0120hopping",
    "3188": "\u0120mushroom",
    "3189": "\u0120jug",
    "3190": "Timmy",
    "3191": "\u0120squash",
    "3192": "\u0120gum",
    "3193": "\u0120sink",
    "3194": "\u0120movie",
    "3195": "\u0120tax",
    "3196": "\u0120flute",
    "3197": "\u0120beet",
    "3198": "\u0120lean",
    "3199": "Their",
    "3200": "iv",
    "3201": "\u0120popular",
    "3202": "opter",
    "3203": "icopter",
    "3204": "\u0120cryst",
    "3205": "\u0120ones",
    "3206": "\u0120sil",
    "3207": "\u0120competit",
    "3208": "\u0120helicopter",
    "3209": "aser",
    "3210": "\u0120needs",
    "3211": "ipop",
    "3212": "llipop",
    "3213": "\u0120crocodile",
    "3214": "\u0120liz",
    "3215": "Molly",
    "3216": "\u0120press",
    "3217": "\u0120troubled",
    "3218": "\u0120pige",
    "3219": "\u0120locked",
    "3220": "\u0120tricks",
    "3221": "\u0120lollipop",
    "3222": "\u0120playful",
    "3223": "\u0120humble",
    "3224": "\u0120taxi",
    "3225": "\u0120kissed",
    "3226": "\u0120low",
    "3227": "appy",
    "3228": "comfortable",
    "3229": "amond",
    "3230": "\u0120uncomfortable",
    "3231": "\u0120rid",
    "3232": "host",
    "3233": "\u0120wander",
    "3234": "atch",
    "3235": "\u0120angel",
    "3236": "edy",
    "3237": "cles",
    "3238": "\u0120torn",
    "3239": "\u0120grace",
    "3240": "\u0120anx",
    "3241": "\u0120wrapped",
    "3242": "\u0120muff",
    "3243": "\u0120twig",
    "3244": "\u0120pants",
    "3245": "\u0120disappoin",
    "3246": "\u0120Sn",
    "3247": "\u0120helps",
    "3248": "\u0120diamond",
    "3249": "\u0120camera",
    "3250": "atter",
    "3251": "oto",
    "3252": "\u0120anxious",
    "3253": "\u0120ghost",
    "3254": "\u0120tears",
    "3255": "\u0120ruined",
    "3256": "cident",
    "3257": "\u0120Jenny",
    "3258": "ilty",
    "3259": "\u0120quar",
    "3260": "aff",
    "3261": "\u0120Even",
    "3262": "\u0120fis",
    "3263": "opl",
    "3264": "\u0120belt",
    "3265": "eropl",
    "3266": "\u0120env",
    "3267": "\u0120guilty",
    "3268": "\u0120bull",
    "3269": "\u0120aeropl",
    "3270": "\u0120helpless",
    "3271": "\u0120happiness",
    "3272": "\u0120lizard",
    "3273": "\u0120boys",
    "3274": "cut",
    "3275": "ext",
    "3276": "\u0120cere",
    "3277": "\u0120walks",
    "3278": "cean",
    "3279": "\u0120passed",
    "3280": "\u0120meant",
    "3281": "\u0120ocean",
    "3282": "\u0120fluffy",
    "3283": "\u0120wire",
    "3284": "\u0120nail",
    "3285": "\u0120bracelet",
    "3286": "\u0120deaf",
    "3287": "zed",
    "3288": "\u0120stretch",
    "3289": "\u0120candle",
    "3290": "\u0120cact",
    "3291": "tt",
    "3292": "\u0120beetle",
    "3293": "\u0120mop",
    "3294": "\u0120harmless",
    "3295": "umpet",
    "3296": "\u0120ordinary",
    "3297": "\u0120answered",
    "3298": "\u0120collar",
    "3299": "\u0120cop",
    "3300": "\u0120bees",
    "3301": "\u0120tire",
    "3302": "\u0120shape",
    "3303": "\u0120quarrel",
    "3304": "\u0120radio",
    "3305": "\u0120flashlight",
    "3306": "\u0120crystal",
    "3307": "\u0120harder",
    "3308": "\u0120poured",
    "3309": "\u0120trumpet",
    "3310": "\u0120engine",
    "3311": "Mama",
    "3312": "\u0120persist",
    "3313": "\u0120hunt",
    "3314": "\u0120tooth",
    "3315": "\u0120cereal",
    "3316": "\u0120invited",
    "3317": "\u0120comput",
    "3318": "\u0120tag",
    "3319": "\u0120office",
    "3320": "\u0120melt",
    "3321": "\u0120spill",
    "3322": "\u0120charm",
    "3323": "coa",
    "3324": "\u0120lit",
    "3325": "\u0120scoot",
    "3326": "\u0120comet",
    "3327": "\u0120triangle",
    "3328": "ief",
    "3329": "\u0120mug",
    "3330": "\u0120rep",
    "3331": "ube",
    "3332": "\u0120yogurt",
    "3333": "\u0120spend",
    "3334": "\u0120compass",
    "3335": "\u0120accident",
    "3336": "\u0120shade",
    "3337": "hett",
    "3338": "aghett",
    "3339": "aghetti",
    "3340": "\u0120disappointed",
    "3341": "\u0120licked",
    "3342": "\u0120cactus",
    "3343": "\u0120pale",
    "3344": "\u0120cush",
    "3345": "\u0120figure",
    "3346": "\u0120regular",
    "3347": "\u0120giving",
    "3348": "\u0120avoc",
    "3349": "\u0120pro",
    "3350": "\u0120sheet",
    "3351": "\u0120whispered",
    "3352": "aze",
    "3353": "uth",
    "3354": "ellig",
    "3355": "\u0120create",
    "3356": "\u0120barber",
    "3357": "\u0120intellig",
    "3358": "\u0120pipe",
    "3359": "\u0120rode",
    "3360": "\u0120roof",
    "3361": "Jane",
    "3362": "\u0120thread",
    "3363": "ither",
    "3364": "\u0120vi",
    "3365": "\u0120load",
    "3366": "\u0120libr",
    "3367": "\u0120gifted",
    "3368": "ccol",
    "3369": "\u0120practiced",
    "3370": "\u0120delight",
    "3371": "ccoli",
    "3372": "\u0120harsh",
    "3373": "asses",
    "3374": "\u0120pow",
    "3375": "\u0120dust",
    "3376": "\u0120True",
    "3377": "\u0120bicy",
    "3378": "azz",
    "3379": "\u0120spaghetti",
    "3380": "\u0120compassion",
    "3381": "\u0120sailed",
    "3382": "urkey",
    "3383": "ubby",
    "3384": "\u0120forward",
    "3385": "\u0120persistent",
    "3386": "\u0120speed",
    "3387": "\u0120mitten",
    "3388": "\u0120cocoa",
    "3389": "\u0120envel",
    "3390": "\u0120questions",
    "3391": "\u0120computer",
    "3392": "\u0120coo",
    "3393": "\u0120feathers",
    "3394": "hip",
    "3395": "\u0120glove",
    "3396": "ging",
    "3397": "Bobo",
    "3398": "\u0120rice",
    "3399": "\u0120shrimp",
    "3400": "\u0120desk",
    "3401": "\u0120stream",
    "3402": "\u0120inse",
    "3403": "\u0120pigeon",
    "3404": "\u0120charming",
    "3405": "\u0120ears",
    "3406": "\u0120carp",
    "3407": "lcan",
    "3408": "\u0120raft",
    "3409": "\u0120envious",
    "3410": "\u0120knot",
    "3411": "\u0120turkey",
    "3412": "\u0120stronger",
    "3413": "omes",
    "3414": "\u0120coins",
    "3415": "\u0120tap",
    "3416": "lcano",
    "3417": "weet",
    "3418": "\u0120trap",
    "3419": "umbers",
    "3420": "\u0120aeroplane",
    "3421": "\u0120trunk",
    "3422": "\u0120wheat",
    "3423": "\u0120boxes",
    "3424": "\u0120chubby",
    "3425": "\u0120carpet",
    "3426": "\u0120restless",
    "3427": "\u0120intelligent",
    "3428": "\u0120tube",
    "3429": "\u0120spun",
    "3430": "\u0120dreams",
    "3431": "\u0120friendship",
    "3432": "ulif",
    "3433": "olin",
    "3434": "\u0120half",
    "3435": "\u0120loop",
    "3436": "\u0120crawl",
    "3437": "\u0120broccoli",
    "3438": "\u0120onion",
    "3439": "\u0120deliver",
    "3440": "anger",
    "3441": "\u0120acce",
    "3442": "\u0120vide",
    "3443": "\u0120volcano",
    "3444": "\u0120Jake",
    "3445": "\u0120sle",
    "3446": "\u0120track",
    "3447": "\u0120bri",
    "3448": "\u0120caulif",
    "3449": "\u0120vine",
    "3450": "ye",
    "3451": "\u0120ticket",
    "3452": "\u0120thief",
    "3453": "essie",
    "3454": "cycle",
    "3455": "\u0120louder",
    "3456": "\u0120insect",
    "3457": "\u0120numbers",
    "3458": "asing",
    "3459": "\u0120yaw",
    "3460": "\u0120haircut",
    "3461": "ital",
    "3462": "\u0120sleeping",
    "3463": "\u0120mill",
    "3464": "\u0120eventually",
    "3465": "\u0120alert",
    "3466": "\u0120excite",
    "3467": "\u0120pebble",
    "3468": "\u0120hosp",
    "3469": "\u0120attract",
    "3470": "\u0120planet",
    "3471": "\u0120Today",
    "3472": "\u0120univer",
    "3473": "isted",
    "3474": "ulu",
    "3475": "\u0120hospital",
    "3476": "\u0120eraser",
    "3477": "\u0120returned",
    "3478": "\u0120destro",
    "3479": "\u0120graceful",
    "3480": "\u0120happening",
    "3481": "ache",
    "3482": "\u0120OK",
    "3483": "\u0120Emily",
    "3484": "\u0120decide",
    "3485": "\u0120learning",
    "3486": "\u0120screen",
    "3487": "rework",
    "3488": "\u0120nicely",
    "3489": "\u0120leop",
    "3490": "\u0120cauliflower",
    "3491": "\u0120competitive",
    "3492": "\u0120poem",
    "3493": "\u0120celebrate",
    "3494": "\u0120curt",
    "3495": "\u0120peach",
    "3496": "\u0120soldier",
    "3497": "\u0120saus",
    "3498": "\u0120parade",
    "3499": "atient",
    "3500": "\u0120attractive",
    "3501": "\u0120curtain",
    "3502": "\u0120dolphin",
    "3503": "\u0120base",
    "3504": "\u0120violin",
    "3505": "\u0120ways",
    "3506": "Go",
    "3507": "ats",
    "3508": "\u0120travel",
    "3509": "ten",
    "3510": "\u0120rod",
    "3511": "\u0120ignorant",
    "3512": "ulb",
    "3513": "\u0120wheels",
    "3514": "\u0120yach",
    "3515": "\u0120scatter",
    "3516": "\u0120deter",
    "3517": "\u0120compassionate",
    "3518": "\u0120barrel",
    "3519": "\u0120envelope",
    "3520": "\u0120bubble",
    "3521": "\u0120lying",
    "3522": "\u0120firework",
    "3523": "\u0120sort",
    "3524": "\u0120question",
    "3525": "zzy",
    "3526": "\u0120Pipp",
    "3527": "\u0120scooter",
    "3528": "\u0120determ",
    "3529": "\u0120rag",
    "3530": "\u0120thu",
    "3531": "\u0120bicycle",
    "3532": "elery",
    "3533": "\u0120needle",
    "3534": "\u0120Fr",
    "3535": "\u0120judge",
    "3536": "\u0120bulb",
    "3537": "\u0120leopard",
    "3538": "\u0120tem",
    "3539": "\u0120yacht",
    "3540": "\u0120pony",
    "3541": "\u0120cricket",
    "3542": "\u0120order",
    "3543": "\u0120homes",
    "3544": "\u0120ador",
    "3545": "tern",
    "3546": "\u0120truth",
    "3547": "\u0120hook",
    "3548": "dom",
    "3549": "\u0120rubbed",
    "3550": "ete",
    "3551": "igator",
    "3552": "\u0120bushes",
    "3553": "Sarah",
    "3554": "\u0120uncle",
    "3555": "\u0120cushion",
    "3556": "\u0120spell",
    "3557": "\u0120grown",
    "3558": "\u0120cooked",
    "3559": "\u0120adorable",
    "3560": "\u0120chalk",
    "3561": "\u0120soar",
    "3562": "\u0120purse",
    "3563": "\u0120skin",
    "3564": "\u0120themselves",
    "3565": "\u0120impatient",
    "3566": "\u0120celery",
    "3567": "\u0120tray",
    "3568": "\u0120shells",
    "3569": "\u0120pengu",
    "3570": "\u0120sniff",
    "3571": "\u0120prun",
    "3572": "\u0120walls",
    "3573": "\u0120seal",
    "3574": "\u0120lively",
    "3575": "\u0120case",
    "3576": "\u0120alligator",
    "3577": "\u0120distant",
    "3578": "\u0120radish",
    "3579": "\u0120saying",
    "3580": "\u0120speak",
    "3581": "\u0120motorcycle",
    "3582": "\u0120meat",
    "3583": "\u0120send",
    "3584": "illa",
    "3585": "\u0120spinning",
    "3586": "\u0120forth",
    "3587": "\u0120counting",
    "3588": "\u0120enth",
    "3589": "\u0120bounced",
    "3590": "\u0120chain",
    "3591": "\u0120ed",
    "3592": "\u0120cleaning",
    "3593": "ebra",
    "3594": "\u0120film",
    "3595": "\u0120slept",
    "3596": "\u0120pit",
    "3597": "\u0120surf",
    "3598": "\u0120marry",
    "3599": "usia",
    "3600": "\u0120wallet",
    "3601": "\u0120enthusia",
    "3602": "\u0120metal",
    "3603": "urb",
    "3604": "ebook",
    "3605": "\u0120bin",
    "3606": "\u0120week",
    "3607": "\u0120notebook",
    "3608": "\u0120wiped",
    "3609": "\u0120skip",
    "3610": "ision",
    "3611": "chair",
    "3612": "\u0120biggest",
    "3613": "\u0120impro",
    "3614": "\u0120avocado",
    "3615": "\u0120behave",
    "3616": "\u0120destroy",
    "3617": "vator",
    "3618": "\u0120bandage",
    "3619": "\u0120laughs",
    "3620": "\u0120steak",
    "3621": "\u0120pattern",
    "3622": "\u0120Sh",
    "3623": "\u0120post",
    "3624": "\u0120elevator",
    "3625": "\u0120Buzz",
    "3626": "usie",
    "3627": "\u0120dive",
    "3628": "\u0120shut",
    "3629": "\u0120skipped",
    "3630": "\u0120unlock",
    "3631": "\u0120diary",
    "3632": "dest",
    "3633": "ject",
    "3634": "\u0120zebra",
    "3635": "\u0120bags",
    "3636": "ating",
    "3637": "\u0120armchair",
    "3638": "rage",
    "3639": "aged",
    "3640": "\u0120disturb",
    "3641": "\u0120oy",
    "3642": "\u0120pole",
    "3643": "\u0120showing",
    "3644": "\u0120gathered",
    "3645": "\u0120club",
    "3646": "\u0120nurse",
    "3647": "bul",
    "3648": "\u0120earth",
    "3649": "\u0120enc",
    "3650": "\u0120stranger",
    "3651": "\u0120sweater",
    "3652": "\u0120jellyfish",
    "3653": "\u0120screw",
    "3654": "\u0120temp",
    "3655": "\u0120Poppy",
    "3656": "\u0120compl",
    "3657": "\u0120mixer",
    "3658": "Give",
    "3659": "\u0120skull",
    "3660": "\u0120lime",
    "3661": "\u0120bump",
    "3662": "bulance",
    "3663": "\u0120ambulance",
    "3664": "nam",
    "3665": "\u0120father",
    "3666": "\u0120journal",
    "3667": "Gra",
    "3668": "\u0120loudly",
    "3669": "ito",
    "3670": "\u0120folder",
    "3671": "\u0120shield",
    "3672": "\u0120Bet",
    "3673": "\u0120Lulu",
    "3674": "\u0120library",
    "3675": "\u0120Peter",
    "3676": "\u0120buttons",
    "3677": "\u0120playground",
    "3678": "\u0120trucks",
    "3679": "\u0120ink",
    "3680": "\u0120lights",
    "3681": "\u0120tummy",
    "3682": "\u0120pointing",
    "3683": "\u0120city",
    "3684": "\u0120decorate",
    "3685": "\u0120station",
    "3686": "irit",
    "3687": "\u0120prep",
    "3688": "\u0120falls",
    "3689": "quito",
    "3690": "\u0120Polly",
    "3691": "Billy",
    "3692": "\u0120fu",
    "3693": "\u0120Fo",
    "3694": "ention",
    "3695": "nger",
    "3696": "\u0120Birdy",
    "3697": "lies",
    "3698": "\u0120herb",
    "3699": "nament",
    "3700": "\u0120ornament",
    "3701": "\u0120modest",
    "3702": "\u0120guard",
    "3703": "\u0120mos",
    "3704": "\u0120knows",
    "3705": "\u0120cord",
    "3706": "\u0120polish",
    "3707": "\u0120marble",
    "3708": "oby",
    "3709": "\u0120mosquito",
    "3710": "umbled",
    "3711": "\u0120salt",
    "3712": "\u0120attic",
    "3713": "\u0120whenever",
    "3714": "\u0120vest",
    "3715": "ctop",
    "3716": "\u0120resc",
    "3717": "\u0120yet",
    "3718": "\u0120ple",
    "3719": "\u0120disappeared",
    "3720": "ceed",
    "3721": "\u0120strawberry",
    "3722": "\u0120once",
    "3723": "\u0120Mum",
    "3724": "\u0120kay",
    "3725": "\u0120brothers",
    "3726": "\u0120itch",
    "3727": "\u0120pirate",
    "3728": "\u0120football",
    "3729": "\u0120split",
    "3730": "kele",
    "3731": "keleton",
    "3732": "\u0120hipp",
    "3733": "\u0120aut",
    "3734": "\u0120led",
    "3735": "uring",
    "3736": "ctopus",
    "3737": "\u0120driving",
    "3738": "\u0120cable",
    "3739": "\u0120support",
    "3740": "\u0120calling",
    "3741": "\u0120cupboard",
    "3742": "aky",
    "3743": "ushed",
    "3744": "\u0120wishes",
    "3745": "\u0120complet",
    "3746": "\u0120tripped",
    "3747": "\u0120root",
    "3748": "\u0120kayak",
    "3749": "\u0120octopus",
    "3750": "obile",
    "3751": "\u0120added",
    "3752": "\u0120edge",
    "3753": "\u0120mild",
    "3754": "stic",
    "3755": "\u0120determined",
    "3756": "\u0120succeed",
    "3757": "?\".",
    "3758": "\u0120reading",
    "3759": "omobile",
    "3760": "\u0120coal",
    "3761": "Well",
    "3762": "gl",
    "3763": "utes",
    "3764": "par",
    "3765": "\u0120suggest",
    "3766": "\u0120stack",
    "3767": "\u0120thunder",
    "3768": "\u0120kindness",
    "3769": "\u0120automobile",
    "3770": "\u0120complain",
    "3771": "\u0120enthusiastic",
    "3772": "\u0120sneeze",
    "3773": "\u0120cartoon",
    "3774": "\u0120yoga",
    "3775": "\u0120Little",
    "3776": "\u0120growl",
    "3777": "htub",
    "3778": "\u0120flea",
    "3779": "la",
    "3780": "\u0120meadow",
    "3781": "\u0120drawer",
    "3782": "\u0120bathtub",
    "3783": "\u0120ribb",
    "3784": "ophone",
    "3785": "\u0120means",
    "3786": "\u0120hall",
    "3787": "\u0120golf",
    "3788": "\u0120skeleton",
    "3789": "\u0120math",
    "3790": "\u0120veil",
    "3791": "\u0120hunter",
    "3792": "\u0120gor",
    "3793": "\u0120flame",
    "3794": "\u0120poke",
    "3795": "\u0120video",
    "3796": "\u0120chess",
    "3797": "\u0120troph",
    "3798": "\u0120cups",
    "3799": "\u0120glowing",
    "3800": "\u0120matt",
    "3801": "\u0120oyster",
    "3802": "work",
    "3803": "\u0120penny",
    "3804": "\u0120spear",
    "3805": "\u0120itself",
    "3806": "\u0120drawings",
    "3807": "\u0120hippo",
    "3808": "\u0120repair",
    "3809": "\u0120switch",
    "3810": "glasses",
    "3811": "\u0120sunglasses",
    "3812": "\u0120teleph",
    "3813": "\u0120costume",
    "3814": "\u0120dess",
    "3815": "\u0120zipp",
    "3816": ",\u00e2\u0122\u013f",
    "3817": "\u0120repe",
    "3818": "\u0120muffin",
    "3819": "\u0120arg",
    "3820": "\u0120pastry",
    "3821": "\u0120pun",
    "3822": "\u0120rolling",
    "3823": "\u0120minutes",
    "3824": "\u0120packed",
    "3825": "\u0120makeup",
    "3826": "iron",
    "3827": "ric",
    "3828": "\u0120People",
    "3829": "\u0120waffle",
    "3830": "case",
    "3831": "\u0120handle",
    "3832": "\u0120pear",
    "3833": "\u0120maze",
    "3834": "\u0120telephone",
    "3835": "\u0120pine",
    "3836": "ait",
    "3837": "\u0120gear",
    "3838": "\u0120hedge",
    "3839": "\u0120mattress",
    "3840": "\u0120package",
    "3841": "aving",
    "3842": "\u0120Miss",
    "3843": "\u0120shocked",
    "3844": "ines",
    "3845": "\u0120trophy",
    "3846": "\u0120powder",
    "3847": "\u0120knight",
    "3848": "\u0120cob",
    "3849": "\u0120missile",
    "3850": "\u0120managed",
    "3851": "\u0120frame",
    "3852": "\u0120encou",
    "3853": "\u0120wife",
    "3854": "\u0120ok",
    "3855": "\u0120separ",
    "3856": "web",
    "3857": "\u0120stairs",
    "3858": "\u0120rot",
    "3859": "\u0120camp",
    "3860": "urch",
    "3861": "rophone",
    "3862": "\u0120magaz",
    "3863": "\u0120strugg",
    "3864": "\u0120colour",
    "3865": "\u0120grapes",
    "3866": "time",
    "3867": "\u0120file",
    "3868": "head",
    "3869": "\u0120Tina",
    "3870": "\u0120basketball",
    "3871": "Bye",
    "3872": "old",
    "3873": "per",
    "3874": "\u0120cobweb",
    "3875": "Re",
    "3876": "Jimmy",
    "3877": "\u0120Tweet",
    "3878": "See",
    "3879": "\u0120perm",
    "3880": "\u0120wool",
    "3881": "\u0120Dan",
    "3882": "\u0120microphone",
    "3883": "esday",
    "3884": "\u0120eye",
    "3885": "\u0120leash",
    "3886": "\u0120gasp",
    "3887": "iew",
    "3888": "keep",
    "3889": "\u0120weep",
    "3890": "\u0120barking",
    "3891": "ature",
    "3892": "\u0120safely",
    "3893": "\u0120tear",
    "3894": "\u0120view",
    "3895": "ffe",
    "3896": "\u0120slides",
    "3897": "\u0120steps",
    "3898": "istol",
    "3899": "ffee",
    "3900": "\u0120bananas",
    "3901": "\u0120staff",
    "3902": "\u0120spirit",
    "3903": "\u0120task",
    "3904": "\u0120giggled",
    "3905": "\u0120hoc",
    "3906": "\u0120hockey",
    "3907": "\u0120vend",
    "3908": "\u0120those",
    "3909": "\u0120gorilla",
    "3910": "Jill",
    "3911": "\u0120cooler",
    "3912": "\u0120Rose",
    "3913": "was",
    "3914": "cing",
    "3915": "\u0120early",
    "3916": "\u0120marched",
    "3917": "rosc",
    "3918": "\u0120mint",
    "3919": "\u0120Look",
    "3920": "washer",
    "3921": "\u0120flour",
    "3922": "\u0120hotel",
    "3923": "hic",
    "3924": "\u0120sailor",
    "3925": "\u0120dessert",
    "3926": "\u0120photo",
    "3927": "roscope",
    "3928": "\u0120vehic",
    "3929": "ilot",
    "3930": "\u0120often",
    "3931": "\u0120church",
    "3932": "\u0120Pete",
    "3933": "\u0120cooking",
    "3934": "\u0120remain",
    "3935": "\u0120five",
    "3936": "\u0120sausage",
    "3937": "otter",
    "3938": "\u0120ten",
    "3939": "\u0120tools",
    "3940": "\u0120medal",
    "3941": "\u0120either",
    "3942": "\u0120fireman",
    "3943": "chor",
    "3944": "\u0120grandpa",
    "3945": "\u0120otter",
    "3946": "\u0120baseball",
    "3947": "\u0120pretending",
    "3948": "\u0120pistol",
    "3949": "\u0120dishwasher",
    "3950": "\u0120rever",
    "3951": "\u0120organize",
    "3952": "\u0120pee",
    "3953": "\u0120vendor",
    "3954": "\u0120knock",
    "3955": "\u0120sight",
    "3956": "\u0120grill",
    "3957": "\u0120temple",
    "3958": "\u0120battery",
    "3959": "\u0120thinking",
    "3960": "\u0120opens",
    "3961": "\u0120ow",
    "3962": "\u0120realised",
    "3963": "\u0120iron",
    "3964": "\u0120laser",
    "3965": "\u0120sne",
    "3966": "\u0120sandbox",
    "3967": "\u0120oil",
    "3968": "\u0120patch",
    "3969": "\u0120hours",
    "3970": "\u0120rise",
    "3971": "\u0120whip",
    "3972": "'d",
    "3973": "ctory",
    "3974": "\u0120Give",
    "3975": "\u0120anchor",
    "3976": "\u0120trash",
    "3977": "ense",
    "3978": "\u0120short",
    "3979": "ney",
    "3980": "\u0120Betty",
    "3981": "\u0120rhin",
    "3982": "\u0120factory",
    "3983": "seum",
    "3984": "\u0120may",
    "3985": "\u0120ward",
    "3986": "ately",
    "3987": "\u0120cardboard",
    "3988": "ugged",
    "3989": "\u0120lotion",
    "3990": "Al",
    "3991": "\u0120message",
    "3992": "\u0120valu",
    "3993": "\u0120wardrobe",
    "3994": "\u0120cell",
    "3995": "\u0120museum",
    "3996": "apers",
    "3997": "\u0120ur",
    "3998": "ination",
    "3999": "\u0120hanging",
    "4000": "ucet",
    "4001": "ailable",
    "4002": "\u0120Sunny",
    "4003": "\u0120Zoom",
    "4004": "\u0120hive",
    "4005": "eer",
    "4006": "\u0120towers",
    "4007": "keeper",
    "4008": "\u0120blackboard",
    "4009": "\u0120mem",
    "4010": "\u0120excitement",
    "4011": "\u0120coffee",
    "4012": "\u0120pilot",
    "4013": "ready",
    "4014": "Fluffy",
    "4015": "\u0120napkin",
    "4016": "\u0120penguin",
    "4017": "ron",
    "4018": "\u0120check",
    "4019": "\u0120reward",
    "4020": "loo",
    "4021": "\u0120quit",
    "4022": "\u0120Pippin",
    "4023": "\u0120cane",
    "4024": "\u0120picking",
    "4025": "place",
    "4026": "\u0120Snow",
    "4027": "azor",
    "4028": "\u0120faucet",
    "4029": "\u0120ig",
    "4030": "\u0120passport",
    "4031": "\u0120Rob",
    "4032": "\u0120stumbled",
    "4033": "\u0120dreamed",
    "4034": "\u0120igloo",
    "4035": "\u0120Bessie",
    "4036": "aroo",
    "4037": "angaroo",
    "4038": "\u0120freez",
    "4039": "\u0120juicy",
    "4040": "\u0120allowed",
    "4041": "play",
    "4042": "\u0120holds",
    "4043": "\u0120already",
    "4044": "\u0120available",
    "4045": "\u0120sett",
    "4046": "\u0120bathe",
    "4047": "\u0120tornado",
    "4048": "imney",
    "4049": "\u0120fingers",
    "4050": "htray",
    "4051": "\u0120hanger",
    "4052": "\u0120newsp",
    "4053": "\u0120size",
    "4054": "\u0120laund",
    "4055": "\u0120lend",
    "4056": "\u0120chimney",
    "4057": "\u0120laundry",
    "4058": "\u0120oak",
    "4059": "\u0120fisher",
    "4060": "\u0120kangaroo",
    "4061": "\u0120men",
    "4062": "\u0120Everywhere",
    "4063": "\u0120telling",
    "4064": "Em",
    "4065": "\u0120novel",
    "4066": "body",
    "4067": "\u0120mummy",
    "4068": "\u0120pal",
    "4069": "\u0120mule",
    "4070": "\u0120cherries",
    "4071": "\u0120notice",
    "4072": "\u0120practice",
    "4073": "\u0120spilled",
    "4074": "\u0120reind",
    "4075": "\u0120complete",
    "4076": "\u0120enjoying",
    "4077": "\u0120microscope",
    "4078": "arian",
    "4079": "ampoo",
    "4080": "\u0120gain",
    "4081": "\u0120sub",
    "4082": "\u0120fireplace",
    "4083": "\u0120imagine",
    "4084": "anda",
    "4085": "\u0120display",
    "4086": "ocer",
    "4087": "\u0120Zip",
    "4088": "\u0120fastest",
    "4089": "\u0120magazine",
    "4090": "\u0120hurry",
    "4091": "\u0120cabinet",
    "4092": "\u0120shrink",
    "4093": "\u0120ashtray",
    "4094": "Wait",
    "4095": "\u0120cows",
    "4096": "\u0120Spike",
    "4097": "Joe",
    "4098": "gen",
    "4099": "\u0120palace",
    "4100": "\u0120improve",
    "4101": "aches",
    "4102": "\u0120rake",
    "4103": "\u0120reindeer",
    "4104": "\u0120falling",
    "4105": "oceros",
    "4106": "\u0120skirt",
    "4107": "ured",
    "4108": "\u0120discovered",
    "4109": "\u0120stared",
    "4110": "\u0120roared",
    "4111": "aid",
    "4112": "\u0120silver",
    "4113": "\u0120tub",
    "4114": "\u0120trail",
    "4115": "Is",
    "4116": "\u0120miner",
    "4117": "come",
    "4118": "\u0120bill",
    "4119": "iction",
    "4120": "\u0120fog",
    "4121": "\u0120ax",
    "4122": "stairs",
    "4123": "ilet",
    "4124": "\u0120hut",
    "4125": "\u0120happier",
    "4126": "\u0120taller",
    "4127": "ictionary",
    "4128": "\u0120oats",
    "4129": "\u0120fisherman",
    "4130": "\u0120object",
    "4131": "\u0120por",
    "4132": "vision",
    "4133": "\u0120valuable",
    "4134": "\u0120shampoo",
    "4135": "\u0120holes",
    "4136": "\u0120offered",
    "4137": "\u0120boots",
    "4138": "\u0120rhinoceros",
    "4139": "\u0120names",
    "4140": "\u0120toilet",
    "4141": "\u0120climbing",
    "4142": "\u0120blin",
    "4143": "vice",
    "4144": "Ow",
    "4145": "\u0120stretched",
    "4146": "iest",
    "4147": "\u0120zipper",
    "4148": "\u0120listening",
    "4149": "\u0120sym",
    "4150": "\u0120bathrobe",
    "4151": "alend",
    "4152": "\u0120jewelry",
    "4153": "\u0120Here",
    "4154": "\u0120jokes",
    "4155": "\u0120television",
    "4156": "\u0120prov",
    "4157": "\u0120calend",
    "4158": "\u0120stops",
    "4159": "\u0120axe",
    "4160": "\u0120jumps",
    "4161": "\u0120fuel",
    "4162": "cu",
    "4163": "\u0120sparkly",
    "4164": "\u0120perfume",
    "4165": "\u0120Susie",
    "4166": "\u0120bury",
    "4167": "bol",
    "4168": "Mummy",
    "4169": "lu",
    "4170": "\u0120pressed",
    "4171": "\u0120Kim",
    "4172": "reek",
    "4173": "\u0120rece",
    "4174": "fa",
    "4175": "\u0120Toby",
    "4176": "\u0120neat",
    "4177": "\u0120creek",
    "4178": "\u0120popped",
    "4179": "\u0120opera",
    "4180": "\u0120calendar",
    "4181": "\u0120snap",
    "4182": "\u0120gasped",
    "4183": "\u0120attach",
    "4184": "\u0120symbol",
    "4185": "\u0120tuna",
    "4186": "\u0120Mar",
    "4187": "\u0120papers",
    "4188": "Mr",
    "4189": "\u0120unpack",
    "4190": "\u0120resist",
    "4191": "\u0120dictionary",
    "4192": "\u0120subway",
    "4193": "\u0120letters",
    "4194": "\u0120freezer",
    "4195": "\u0120chose",
    "4196": "\u0120pinch",
    "4197": "zag",
    "4198": "\u0120spoke",
    "4199": "\u0120anyway",
    "4200": "\u0120super",
    "4201": "\u0120porch",
    "4202": "\u0120helper",
    "4203": "affe",
    "4204": "\u0120bikes",
    "4205": "\u0120lie",
    "4206": "arry",
    "4207": "iches",
    "4208": "\u0120tightly",
    "4209": "\u0120comfort",
    "4210": "\u0120shaking",
    "4211": "\u0120bookcase",
    "4212": "\u0120son",
    "4213": "\u0120razor",
    "4214": "aurant",
    "4215": "\u0120sandwiches",
    "4216": "\u0120Are",
    "4217": "igzag",
    "4218": "\u0120weigh",
    "4219": "\u0120against",
    "4220": "\u0120stickers",
    "4221": "\u0120restaurant",
    "4222": "\u0120newspaper",
    "4223": "\u0120blouse",
    "4224": "\u0120vehicle",
    "4225": "\u0120swinging",
    "4226": "\u0120ped",
    "4227": "\u0120disag",
    "4228": "\u0120nature",
    "4229": "\u0120squirrels",
    "4230": "ival",
    "4231": "\u0120belongs",
    "4232": "\u0120swamp",
    "4233": "\u0120butterflies",
    "4234": "\u0120gym",
    "4235": "del",
    "4236": "\u0120inclu",
    "4237": "\u0120growing",
    "4238": "\u0120buckle",
    "4239": "omed",
    "4240": "\u0120stirred",
    "4241": "\u0120mustache",
    "4242": "\u0120billboard",
    "4243": "xy",
    "4244": "\u0120beep",
    "4245": "te",
    "4246": "\u0120alarm",
    "4247": "\u0120lightning",
    "4248": "\u0120lip",
    "4249": "\u0120fest",
    "4250": "\u0120hung",
    "4251": "utor",
    "4252": "\u0120distance",
    "4253": "ogn",
    "4254": "\u0120cards",
    "4255": "\u0120obser",
    "4256": "\u0120agree",
    "4257": "Little",
    "4258": "\u0120ext",
    "4259": "\u0120tease",
    "4260": "\u0120recogn",
    "4261": "\u0120rubber",
    "4262": "ik",
    "4263": "\u0120hate",
    "4264": "fast",
    "4265": "ef",
    "4266": "Ouch",
    "4267": "\u0120doesn",
    "4268": "\u0120musician",
    "4269": "\u0120advice",
    "4270": "\u0120beef",
    "4271": "\u0120serve",
    "4272": "aspoon",
    "4273": "\u0120sweetie",
    "4274": "\u0120model",
    "4275": "lter",
    "4276": "\u0120crib",
    "4277": "\u0120blueberries",
    "4278": "\u0120sofa",
    "4279": "\u0120circles",
    "4280": "\u0120breakfast",
    "4281": "\u0120tutor",
    "4282": "asis",
    "4283": "\u0120bookshe",
    "4284": "\u0120giraffe",
    "4285": "stri",
    "4286": "\u0120festival",
    "4287": "\u0120separate",
    "4288": "\u0120shelter",
    "4289": "\u0120gas",
    "4290": "\u0120airport",
    "4291": "\u0120olive",
    "4292": "\u0120rail",
    "4293": "\u0120bookshelf",
    "4294": "\u0120frogs",
    "4295": "\u0120teaspoon",
    "4296": "\u0120reverse",
    "4297": "\u0120junk",
    "4298": "\u0120riding",
    "4299": "\u0120pleased",
    "4300": "\u0120drain",
    "4301": "\u0120Mrs",
    "4302": "\u0120wipe",
    "4303": "\u0120oasis",
    "4304": "\u0120soil",
    "4305": "\u0120ahead",
    "4306": "\u0120rescue",
    "4307": "\u0120leaving",
    "4308": "ummer",
    "4309": "\u0120painter",
    "4310": "\u0120squeeze",
    "4311": "\u0120chance",
    "4312": "\u0120poked",
    "4313": "\u0120knob",
    "4314": "\u0120Teddy",
    "4315": "\u0120peeked",
    "4316": "\u0120lumber",
    "4317": "\u0120trains",
    "4318": "\u0120extra",
    "4319": "\u0120slipp",
    "4320": "\u0120quiz",
    "4321": "\u0120refused",
    "4322": "res",
    "4323": "rmomet",
    "4324": "\u0120page",
    "4325": "\u0120rules",
    "4326": "\u0120happens",
    "4327": "\u0120sounded",
    "4328": "\u0120ins",
    "4329": "\u0120point",
    "4330": "\u0120winter",
    "4331": "\u0120dancer",
    "4332": "\u0120Grandpa",
    "4333": "\u0120birdc",
    "4334": "\u0120disappear",
    "4335": "rmometer",
    "4336": "\u0120Dolly",
    "4337": "\u0120weather",
    "4338": "\u0120waste",
    "4339": "\u0120lic",
    "4340": "\u0120birdcage",
    "4341": "\u0120theater",
    "4342": "\u0120reef",
    "4343": "\u0120carrying",
    "4344": "Daisy",
    "4345": "\u0120invite",
    "4346": "iform",
    "4347": "\u0120goal",
    "4348": "\u0120ostri",
    "4349": "\u0120uniform",
    "4350": "\u0120swung",
    "4351": "\u0120trade",
    "4352": "\u0120cliff",
    "4353": "ience",
    "4354": "\u0120lawn",
    "4355": "ola",
    "4356": "\u0120leaned",
    "4357": "\u0120Pandy",
    "4358": "angu",
    "4359": "\u0120accept",
    "4360": "\u0120admire",
    "4361": "\u0120fort",
    "4362": "\u0120accidentally",
    "4363": "\u0120pastel",
    "4364": "bbles",
    "4365": "\u0120stom",
    "4366": "\u0120langu",
    "4367": "\u0120twir",
    "4368": "\u0120suff",
    "4369": "\u0120panda",
    "4370": "riger",
    "4371": "\u0120bet",
    "4372": "rigerator",
    "4373": "\u0120peek",
    "4374": "render",
    "4375": "\u0120blinked",
    "4376": "\u0120starts",
    "4377": "na",
    "4378": "\u0120refrigerator",
    "4379": "\u0120anywhere",
    "4380": "!\".",
    "4381": "\u0120imagined",
    "4382": "\u0120dreaming",
    "4383": "\u0120remove",
    "4384": "night",
    "4385": "\u0120shower",
    "4386": "\u0120Lee",
    "4387": "\u0120Co",
    "4388": "\u0120classroom",
    "4389": "\u0120ceiling",
    "4390": "\u0120caring",
    "4391": "ium",
    "4392": "\u0120grand",
    "4393": "\u0120missing",
    "4394": "aked",
    "4395": "\u0120license",
    "4396": "\u0120stable",
    "4397": "\u0120thermometer",
    "4398": "\u0120monkeys",
    "4399": "astic",
    "4400": "\u0120warned",
    "4401": "\u0120summer",
    "4402": "\u0120Where",
    "4403": "\u0120above",
    "4404": "\u0120brick",
    "4405": "ected",
    "4406": "\u0120cudd",
    "4407": "\u0120problems",
    "4408": "amber",
    "4409": "\u0120chasing",
    "4410": "\u0120label",
    "4411": "\u0120apron",
    "4412": "\u0120sent",
    "4413": "urnit",
    "4414": "urniture",
    "4415": "\u0120lawy",
    "4416": "\u0120lid",
    "4417": "uggage",
    "4418": "med",
    "4419": "\u0120respectful",
    "4420": "\u0120furniture",
    "4421": "\u0120frowned",
    "4422": "\u0120zoomed",
    "4423": "\u0120pages",
    "4424": "\u0120prevent",
    "4425": "\u0120bent",
    "4426": "\u0120luggage",
    "4427": "\u0120mistakes",
    "4428": "\u0120sunset",
    "4429": "\u0120ostrich",
    "4430": "ison",
    "4431": "\u0120suggested",
    "4432": "\u0120windows",
    "4433": "ations",
    "4434": "\u0120jail",
    "4435": "low",
    "4436": "\u0120wine",
    "4437": "\u0120ribbon",
    "4438": "\u0120older",
    "4439": "\u0120shouts",
    "4440": "\u0120grape",
    "4441": "\u0120Cl",
    "4442": "\u0120wigg",
    "4443": "ucture",
    "4444": "\u0120structure",
    "4445": "\u0120spoil",
    "4446": "eor",
    "4447": "\u0120fixing",
    "4448": "\u0120chamber",
    "4449": "\u0120lions",
    "4450": "\u0120delay",
    "4451": "\u0120finds",
    "4452": "\u0120handed",
    "4453": "\u0120searching",
    "4454": "\u0120unite",
    "4455": "Did",
    "4456": "\u0120fought",
    "4457": "\u0120lawyer",
    "4458": "\u0120brightly",
    "4459": "\u0120pair",
    "4460": "\u0120meeting",
    "4461": "\u0120choice",
    "4462": "\u0120surprises",
    "4463": "\u0120Ellie",
    "4464": "\u0120art",
    "4465": "\u0120Un",
    "4466": "Ch",
    "4467": "\u0120favour",
    "4468": "eterin",
    "4469": "eterinarian",
    "4470": "adium",
    "4471": "\u0120stadium",
    "4472": "\u0120proudly",
    "4473": "iki",
    "4474": "\u0120veterinarian",
    "4475": "vet",
    "4476": "rod",
    "4477": "\u0120chairs",
    "4478": "\u0120slip",
    "4479": "\u0120Spe",
    "4480": "\u0120sadly",
    "4481": "\u0120Bow",
    "4482": "\u0120incre",
    "4483": "\u0120Carl",
    "4484": "\u0120puddles",
    "4485": "\u0120berry",
    "4486": "\u0120introd",
    "4487": "\u0120ranch",
    "4488": "veal",
    "4489": "\u0120Boun",
    "4490": "\u0120argue",
    "4491": "\u0120V",
    "4492": "\u0120admired",
    "4493": "\u0120cur",
    "4494": "\u0120favourite",
    "4495": "Your",
    "4496": "\u0120inf",
    "4497": "\u0120excitedly",
    "4498": "\u0120rac",
    "4499": "\u0120grabs",
    "4500": "mend",
    "4501": "\u0120steam",
    "4502": "thank",
    "4503": "\u0120human",
    "4504": "eorge",
    "4505": "sity",
    "4506": "\u0120Hel",
    "4507": "\u0120pushing",
    "4508": "\u0120saving",
    "4509": "\u0120Red",
    "4510": "\u0120reveal",
    "4511": "ommend",
    "4512": "alley",
    "4513": "\u0120yield",
    "4514": "olog",
    "4515": "\u0120mall",
    "4516": "\u0120reminded",
    "4517": "\u0120recommend",
    "4518": "\u0120leak",
    "4519": "\u0120surrender",
    "4520": "\u0120harb",
    "4521": "\u0120appl",
    "4522": "cuss",
    "4523": "aul",
    "4524": "\u0120weap",
    "4525": "\u0120regret",
    "4526": "\u0120putting",
    "4527": "\u0120valley",
    "4528": "\u0120mineral",
    "4529": "\u0120evening",
    "4530": "elcome",
    "4531": "\u0120matches",
    "4532": "\u0120forgave",
    "4533": "\u0120sneezed",
    "4534": "\u0120pup",
    "4535": "\u0120aw",
    "4536": "\u0120rushed",
    "4537": "ecause",
    "4538": "\u0120spade",
    "4539": "\u0120apolog",
    "4540": "\u0120plates",
    "4541": "\u0120discuss",
    "4542": "\u0120prepare",
    "4543": "\u0120harbor",
    "4544": "\u0120ignore",
    "4545": "\u0120Big",
    "4546": "\u0120country",
    "4547": "\u0120language",
    "4548": "\u0120Buzzy",
    "4549": "\u0120pulls",
    "4550": "\u0120plastic",
    "4551": "\u0120supply",
    "4552": "\u0120float",
    "4553": "\u0120sniffed",
    "4554": "\u0120Jazz",
    "4555": "\u0120replace",
    "4556": "\u0120meas",
    "4557": "\u0120shovel",
    "4558": "\u0120Bill",
    "4559": "\u0120raise",
    "4560": "\u0120Next",
    "4561": "\u0120fre",
    "4562": "\u0120cared",
    "4563": "\u0120socks",
    "4564": "\u0120strip",
    "4565": "\u0120doors",
    "4566": "\u0120mystery",
    "4567": "\u0120lives",
    "4568": "\u0120restore",
    "4569": "\u0120sticker",
    "4570": "\u0120sudden",
    "4571": "ari",
    "4572": "\u0120kinds",
    "4573": "\u0120slippery",
    "4574": "ero",
    "4575": "\u0120Ow",
    "4576": "\u0120player",
    "4577": "\u0120panic",
    "4578": "ricane",
    "4579": "\u0120hoping",
    "4580": "iday",
    "4581": "\u0120shone",
    "4582": "lex",
    "4583": "hero",
    "4584": "\u0120beg",
    "4585": "\u0120Mike",
    "4586": "\u0120Binky",
    "4587": "\u0120superhero",
    "4588": "\u0120delighted",
    "4589": "\u0120gro",
    "4590": "Yay",
    "4591": "aud",
    "4592": "chan",
    "4593": "\u0120chickens",
    "4594": "\u0120shoulder",
    "4595": "\u0120rained",
    "4596": "\u0120colourful",
    "4597": "\u0120breat",
    "4598": "\u0120Alice",
    "4599": "\u0120claw",
    "4600": "\u0120Bubbles",
    "4601": "Yuck",
    "4602": "\u0120softly",
    "4603": "rise",
    "4604": "\u0120port",
    "4605": "Grandma",
    "4606": "\u0120hol",
    "4607": "icer",
    "4608": "\u0120holiday",
    "4609": "\u0120\u00e2\u0122",
    "4610": "\u0120barks",
    "4611": "ason",
    "4612": "\u0120throwing",
    "4613": "\u0120planes",
    "4614": "Mary",
    "4615": "\u0120bend",
    "4616": "\u0120Freddy",
    "4617": "\u0120shakes",
    "4618": "\u0120infant",
    "4619": "\u0120ended",
    "4620": "\u0120shivering",
    "4621": "\u0120kneel",
    "4622": "\u0120sunrise",
    "4623": "\u0120pushes",
    "4624": "\u0120Olive",
    "4625": "\u0120thanks",
    "4626": "\u0120fresh",
    "4627": "\u0120suffer",
    "4628": "\u0120points",
    "4629": "imed",
    "4630": "wards",
    "4631": "\u0120Pat",
    "4632": "\u0120tip",
    "4633": "\u0120Speedy",
    "4634": "\u0120freeze",
    "4635": "\u0120keeping",
    "4636": "\u0120Would",
    "4637": "\u0120giggle",
    "4638": "\u0120copper",
    "4639": "\u0120smells",
    "4640": "\u0120dear",
    "4641": "\u0120enter",
    "4642": "\u0120provide",
    "4643": "cast",
    "4644": "chanic",
    "4645": "\u0120dishes",
    "4646": "\u0120End",
    "4647": "cond",
    "4648": "\u0120unh",
    "4649": "Next",
    "4650": "\u0120applaud",
    "4651": "\u0120heads",
    "4652": "\u0120hurricane",
    "4653": "\u0120cherry",
    "4654": "\u0120thumb",
    "4655": "\u0120menu",
    "4656": "\u0120meowed",
    "4657": "\u0120mass",
    "4658": "\u0120second",
    "4659": "\u0120brighter",
    "4660": "ince",
    "4661": "\u0120sandcast",
    "4662": "\u0120mechanic",
    "4663": "\u0120wre",
    "4664": "\u0120sprayed",
    "4665": "\u0120letting",
    "4666": "\u0120event",
    "4667": "\u0120weapon",
    "4668": "\u0120laught",
    "4669": "\u0120x",
    "4670": "\u0120laughter",
    "4671": "\u0120clapping",
    "4672": "\u0120feelings",
    "4673": "Will",
    "4674": "icky",
    "4675": "\u0120splashing",
    "4676": "ement",
    "4677": "\u0120Or",
    "4678": "acked",
    "4679": "\u0120castles",
    "4680": "\u0120Fl",
    "4681": "cer",
    "4682": "\u0120score",
    "4683": "apping",
    "4684": "\u0120universe",
    "4685": "\u0120navy",
    "4686": "\u0120dem",
    "4687": "\u0120sticky",
    "4688": "ophie",
    "4689": "\u0120rooms",
    "4690": "\u0120row",
    "4691": "\u0120flies",
    "4692": "igi",
    "4693": "\u0120Dave",
    "4694": "\u0120unhappy",
    "4695": "\u0120greedy",
    "4696": "\u0120dare",
    "4697": "\u0120alive",
    "4698": "\u0120breaks",
    "4699": "\u0120ener",
    "4700": "\u0120courage",
    "4701": "\u0120invit",
    "4702": "Ready",
    "4703": "\u0120repeat",
    "4704": "\u0120demand",
    "4705": "\u0120trusted",
    "4706": "Lisa",
    "4707": "\u0120somewhere",
    "4708": "arlie",
    "4709": "\u0120prune",
    "4710": "bles",
    "4711": "\u0120wreck",
    "4712": "\u0120Y",
    "4713": "\u0120skill",
    "4714": "\u0120examine",
    "4715": "\u0120parts",
    "4716": "year",
    "4717": "\u0120eaten",
    "4718": "oe",
    "4719": "All",
    "4720": "erc",
    "4721": "enry",
    "4722": "\u0120mention",
    "4723": "\u0120raining",
    "4724": "\u0120Help",
    "4725": "Buddy",
    "4726": "\u0120throws",
    "4727": "\u0120jogged",
    "4728": "quest",
    "4729": "\u0120starting",
    "4730": "\u0120rush",
    "4731": "\u0120poison",
    "4732": "\u0120pirates",
    "4733": "heart",
    "4734": "\u0120vac",
    "4735": "\u0120content",
    "4736": "Emma",
    "4737": "\u0120Kiki",
    "4738": "\u0120sigh",
    "4739": "\u0120flapped",
    "4740": "\u0120drops",
    "4741": "\u0120chirp",
    "4742": "\u0120sport",
    "4743": "Qu",
    "4744": "\u0120sparkled",
    "4745": "\u0120Zoomy",
    "4746": "\u0120given",
    "4747": "\u0120streng",
    "4748": "\u0120steel",
    "4749": "Ann",
    "4750": "\u0120bumped",
    "4751": "\u0120yawned",
    "4752": "\u0120stud",
    "4753": "\u0120request",
    "4754": "\u0120scold",
    "4755": "\u0120myself",
    "4756": "\u0120strength",
    "4757": "\u0120shrugged",
    "4758": "Mark",
    "4759": "\u0120coats",
    "4760": "\u0120punish",
    "4761": "\u0120equ",
    "4762": "\u0120snugg",
    "4763": "\u0120university",
    "4764": "\u0120paid",
    "4765": "\u0120Johnny",
    "4766": "\u0120pigs",
    "4767": "\u0120scratch",
    "4768": "\u0120toe",
    "4769": "\u0120exerc",
    "4770": "\u0120tracks",
    "4771": "\u0120upstairs",
    "4772": "\u0120prayed",
    "4773": "\u0120crossed",
    "4774": "\u0120squeezed",
    "4775": "\u0120impressed",
    "4776": "\u0120flood",
    "4777": "\u0120bouncing",
    "4778": "\u0120Ru",
    "4779": "Alice",
    "4780": "\u0120rabbits",
    "4781": "ges",
    "4782": "\u0120badly",
    "4783": "..",
    "4784": "\u0120warn",
    "4785": "\u0120leather",
    "4786": "\u0120expect",
    "4787": "\u0120news",
    "4788": "\u0120tide",
    "4789": "\u0120Ted",
    "4790": "\u0120minute",
    "4791": "\u0120bears",
    "4792": "\u0120claws",
    "4793": "\u0120buzz",
    "4794": "\u0120sweetheart",
    "4795": "\u0120Sm",
    "4796": "yth",
    "4797": "\u0120nation",
    "4798": "Sh",
    "4799": "ythm",
    "4800": "\u0120vacation",
    "4801": "\u0120hist",
    "4802": "\u0120heat",
    "4803": "\u0120strawberries",
    "4804": "\u0120observe",
    "4805": "\u0120explored",
    "4806": "\u0120settle",
    "4807": "\u0120sandcastle",
    "4808": "\u0120yawn",
    "4809": "\u0120history",
    "4810": "\u0120Lilly",
    "4811": "\u0120Lola",
    "4812": "mare",
    "4813": "\u0120Mummy",
    "4814": "\u0120Sque",
    "4815": "ially",
    "4816": "inking",
    "4817": "\u0120believed",
    "4818": "\u0120horses",
    "4819": "Daddy",
    "4820": "\u0120Hoppy",
    "4821": "\u0120checked",
    "4822": "\u0120Mandy",
    "4823": "\u0120tour",
    "4824": "\u0120network",
    "4825": "\u0120cheek",
    "4826": "\u0120Under",
    "4827": "\u0120offer",
    "4828": "\u0120easily",
    "4829": "\u0120placed",
    "4830": "spec",
    "4831": "\u0120spots",
    "4832": "\u0120snowball",
    "4833": "ween",
    "4834": "men",
    "4835": "\u0120energy",
    "4836": "\u0120Bee",
    "4837": "\u0120imagination",
    "4838": "\u0120blueberry",
    "4839": "otten",
    "4840": "\u0120between",
    "4841": "specially",
    "4842": "\u0120Gigi",
    "4843": "izes",
    "4844": "\u0120daisy",
    "4845": "\u0120waving",
    "4846": "reeze",
    "4847": "reat",
    "4848": "\u0120vroom",
    "4849": "\u0120soak",
    "4850": "\u0120safari",
    "4851": "\u0120rhythm",
    "4852": "\u0120massage",
    "4853": "\u0120stomach",
    "4854": "\u0120baking",
    "4855": "quake",
    "4856": "\u0120nightmare",
    "4857": "\u0120insisted",
    "4858": "\u0120blowing",
    "4859": "\u0120entered",
    "4860": "Before",
    "4861": "\u0120stair",
    "4862": "\u0120palm",
    "4863": "\u0120beauty",
    "4864": "\u0120twisted",
    "4865": "\u0120bother",
    "4866": "\u0120writing",
    "4867": "\u0120scoop",
    "4868": "\u0120prunes",
    "4869": "\u0120brain",
    "4870": "\u0120ing",
    "4871": "ipment",
    "4872": "\u0120poppy",
    "4873": "\u0120hills",
    "4874": "noon",
    "4875": "\u0120afternoon",
    "4876": "\u0120equipment",
    "4877": "\u0120especially",
    "4878": "hest",
    "4879": "\u0120sir",
    "4880": "\u0120pad",
    "4881": "\u0120See",
    "4882": "\u0120ingred",
    "4883": "\u0120calls",
    "4884": "\u0120ingredient",
    "4885": "\u0120Fox",
    "4886": "\u0120earthquake",
    "4887": "\u0120ignored",
    "4888": "\u0120Snowy",
    "4889": "\u0120burned",
    "4890": "\u0120nobody",
    "4891": "mble",
    "4892": "\u0120sty",
    "4893": "apa",
    "4894": "\u0120sew",
    "4895": "\u0120tug",
    "4896": "isty",
    "4897": "xygen",
    "4898": "\u0120hearts",
    "4899": "\u0120lear",
    "4900": "\u0120learnt",
    "4901": "\u0120lemonade",
    "4902": "\u0120increase",
    "4903": "illie",
    "4904": "Jenny",
    "4905": "\u0120gaz",
    "4906": "\u0120backpack",
    "4907": "\u0120mailman",
    "4908": "\u0120whistled",
    "4909": "\u0120pedal",
    "4910": "\u0120Sk",
    "4911": "Fred",
    "4912": "\u0120shopkeeper",
    "4913": "ffic",
    "4914": "\u0120permit",
    "4915": "\u0120tremble",
    "4916": "\u0120yucky",
    "4917": "anges",
    "4918": "\u0120moves",
    "4919": "\u0120introduce",
    "4920": "\u0120lemons",
    "4921": "\u0120crash",
    "4922": "\u0120beans",
    "4923": "\u0120floated",
    "4924": "edn",
    "4925": "ednesday",
    "4926": "ittens",
    "4927": "Welcome",
    "4928": "\u0120planned",
    "4929": "\u0120strike",
    "4930": "\u0120traffic",
    "4931": "\u0120include",
    "4932": "\u0120slap",
    "4933": "\u0120racing",
    "4934": "\u0120Lucky",
    "4935": "resses",
    "4936": "\u0120wisdom",
    "4937": "\u0120pur",
    "4938": "\u0120wags",
    "4939": "\u0120Finny",
    "4940": "laimed",
    "4941": "\u0120George",
    "4942": "\u0120luck",
    "4943": "\u0120following",
    "4944": "\u0120price",
    "4945": "ecting",
    "4946": "\u0120mama",
    "4947": "\u0120pitch",
    "4948": "\u0120below",
    "4949": "\u0120Elly",
    "4950": "\u0120Have",
    "4951": "Le",
    "4952": "\u0120weight",
    "4953": "\u0120exclaimed",
    "4954": "house",
    "4955": "\u0120buried",
    "4956": "\u0120follows",
    "4957": "\u0120comf",
    "4958": "\u0120recognize",
    "4959": "\u0120ingredients",
    "4960": "\u0120furt",
    "4961": "tain",
    "4962": "\u0120candles",
    "4963": "Mimi",
    "4964": "\u0120marbles",
    "4965": "riage",
    "4966": "unday",
    "4967": "emember",
    "4968": "eration",
    "4969": "\u0120Alex",
    "4970": "\u0120apart",
    "4971": "\u0120Wednesday",
    "4972": "\u0120growled",
    "4973": "uct",
    "4974": "\u0120Su",
    "4975": "ores",
    "4976": "\u0120conf",
    "4977": "\u0120teaching",
    "4978": "\u0120hopes",
    "4979": "\u0120folded",
    "4980": "\u0120closely",
    "4981": "\u0120Finn",
    "4982": "\u0120Who",
    "4983": "\u0120heel",
    "4984": "\u0120Sunday",
    "4985": "\u0120encourage",
    "4986": "\u0120Paul",
    "4987": "\u0120Owl",
    "4988": "\u0120zigzag",
    "4989": "\u0120pulling",
    "4990": "\u0120digg",
    "4991": "\u0120bouncy",
    "4992": "\u0120further",
    "4993": "\u0120chewed",
    "4994": "\u0120digging",
    "4995": "\u0120winning",
    "4996": "Woof",
    "4997": "With",
    "4998": "\u0120dresses",
    "4999": "\u0120image",
    "5000": "rec",
    "5001": "cery",
    "5002": "\u0120shouting",
    "5003": "\u0120grocery",
    "5004": "\u0120twisty",
    "5005": "\u0120peanuts",
    "5006": "\u0120puzzles",
    "5007": "bbing",
    "5008": "\u0120Dog",
    "5009": "look",
    "5010": "\u0120scrat",
    "5011": "\u0120chores",
    "5012": "\u0120whisper",
    "5013": "\u0120Is",
    "5014": "\u0120spike",
    "5015": "\u0120Froggy",
    "5016": "\u0120cape",
    "5017": "\u0120snail",
    "5018": "\u0120acorns",
    "5019": "\u0120worms",
    "5020": "hood",
    "5021": "\u0120deeper",
    "5022": "\u0120urge",
    "5023": "ifi",
    "5024": "\u0120exper",
    "5025": "\u0120Whenever",
    "5026": "\u0120Tilly",
    "5027": "\u0120Squeaky",
    "5028": "\u0120Grace",
    "5029": "\u0120planted",
    "5030": "\u0120attention",
    "5031": "ecture",
    "5032": "\u0120exercise",
    "5033": "\u0120Danny",
    "5034": "\u0120cub",
    "5035": "\u0120operation",
    "5036": "\u0120underground",
    "5037": "\u0120hon",
    "5038": "\u0120agre",
    "5039": "\u0120quite",
    "5040": "\u0120creatures",
    "5041": "\u0120simp",
    "5042": "Everyone",
    "5043": "\u0120struggle",
    "5044": "oral",
    "5045": "\u0120Mittens",
    "5046": "ddy",
    "5047": "\u0120blood",
    "5048": "\u0120lecture",
    "5049": "\u0120washing",
    "5050": "\u0120hurting",
    "5051": "\u0120vanished",
    "5052": "\u0120gifts",
    "5053": "\u0120dressed",
    "5054": "\u0120invitation",
    "5055": "\u0120solved",
    "5056": "\u0120licks",
    "5057": "\u0120snuggled",
    "5058": "\u0120Sharing",
    "5059": "ippy",
    "5060": "\u0120ble",
    "5061": "\u0120marriage",
    "5062": "\u0120quietly",
    "5063": "gie",
    "5064": "\u0120warning",
    "5065": "\u0120jazz",
    "5066": "\u0120breathe",
    "5067": "reci",
    "5068": "\u0120elephants",
    "5069": "\u0120sizes",
    "5070": "\u0120dried",
    "5071": "\u0120fallen",
    "5072": "\u0120landscape",
    "5073": "ories",
    "5074": "\u0120sprink",
    "5075": "\u0120neighbour",
    "5076": "\u0120mice",
    "5077": "uesday",
    "5078": "\u0120appreci",
    "5079": "\u0120Sophie",
    "5080": "\u0120Joey",
    "5081": "\u0120\u00e2\u0122\u0135",
    "5082": "\u0120eagerly",
    "5083": "\u0120sailing",
    "5084": "\u0120Coco",
    "5085": "\u0120paused",
    "5086": "ips",
    "5087": "\u0120counter",
    "5088": "\u0120Good",
    "5089": "\u0120Bounce",
    "5090": "\u0120Penny",
    "5091": "\u0120worth",
    "5092": "looking",
    "5093": "\u0120Rock",
    "5094": "\u0120oxygen",
    "5095": "Because",
    "5096": "\u0120release",
    "5097": "\u0120shined",
    "5098": "Not",
    "5099": "pted",
    "5100": "\u0120reaches",
    "5101": "\u0120balan",
    "5102": "\u0120Zara",
    "5103": "isses",
    "5104": "\u0120oh",
    "5105": "\u0120kisses",
    "5106": "\u0120style",
    "5107": "\u0120bricks",
    "5108": "\u0120plays",
    "5109": "\u0120glo",
    "5110": "\u0120Tuesday",
    "5111": "\u0120ideas",
    "5112": "sed",
    "5113": "\u0120inst",
    "5114": "\u0120wob",
    "5115": "\u0120fireworks",
    "5116": "Bella",
    "5117": "iggly",
    "5118": "ucked",
    "5119": "\u0120seeing",
    "5120": "\u0120flap",
    "5121": "ops",
    "5122": "\u0120accepted",
    "5123": "right",
    "5124": "\u0120Pip",
    "5125": "Today",
    "5126": "\u0120blink",
    "5127": "mm",
    "5128": "\u0120Ros",
    "5129": "\u0120tremb",
    "5130": "These",
    "5131": "\u0120muddy",
    "5132": "\u0120memory",
    "5133": "\u0120married",
    "5134": "\u0120tomatoes",
    "5135": "\u0120exit",
    "5136": "\u0120Annie",
    "5137": "\u0120wagging",
    "5138": "\u0120fash",
    "5139": "Remy",
    "5140": "\u0120Charlie",
    "5141": "\u0120wandered",
    "5142": "unately",
    "5143": "ipping",
    "5144": "\u0120gloves",
    "5145": "\u0120captain",
    "5146": "\u0120pillows",
    "5147": "\u0120receive",
    "5148": "\u0120resp",
    "5149": "\u0120Pinky",
    "5150": "raged",
    "5151": "\u0120during",
    "5152": "\u0120Everything",
    "5153": "etch",
    "5154": "\u0120web",
    "5155": "\u0120petals",
    "5156": "\u0120watered",
    "5157": "\u0120Eventually",
    "5158": "\u0120si",
    "5159": "ived",
    "5160": "\u0120manage",
    "5161": "\u0120pinched",
    "5162": "\u0120brings",
    "5163": "\u0120vanish",
    "5164": "\u0120cakes",
    "5165": "\u0120fashion",
    "5166": "\u0120Bluey",
    "5167": "\u0120printer",
    "5168": "\u0120destroyed",
    "5169": "\u0120treasures",
    "5170": "nce",
    "5171": "\u0120allow",
    "5172": "ups",
    "5173": "\u0120hadn",
    "5174": "\u0120worse",
    "5175": "\u0120Fifi",
    "5176": "Surpr",
    "5177": "\u0120vel",
    "5178": "\u0120hits",
    "5179": "\u0120bur",
    "5180": "xu",
    "5181": "\u0120velvet",
    "5182": "\u0120appear",
    "5183": "\u0120disagree",
    "5184": "do",
    "5185": "\u0120catching",
    "5186": "\u0120scattered",
    "5187": "\u0120Ro",
    "5188": "\u0120memories",
    "5189": "\u0120sorts",
    "5190": "\u0120Papa",
    "5191": "\u0120hers",
    "5192": "\u0120scolded",
    "5193": "\u0120signs",
    "5194": "\u0120pears",
    "5195": "\u0120oranges",
    "5196": "\u0120bones",
    "5197": "\u0120rang",
    "5198": "\u0120snapped",
    "5199": "\u0120sits",
    "5200": "\u0120seats",
    "5201": "uxu",
    "5202": "\u0120gazed",
    "5203": "\u0120raised",
    "5204": "Bl",
    "5205": "\u0120Maria",
    "5206": "\u0120zipped",
    "5207": "\u0120pies",
    "5208": "\u0120prints",
    "5209": "\u0120shot",
    "5210": "\u0120sliding",
    "5211": "\u0120God",
    "5212": "\u0120fro",
    "5213": "\u0120easier",
    "5214": "ssible",
    "5215": "\u0120skills",
    "5216": "\u0120climbs",
    "5217": "\u0120twirled",
    "5218": "ccer",
    "5219": "\u0120blankets",
    "5220": "\u0120forgotten",
    "5221": "\u0120baked",
    "5222": "ester",
    "5223": "Yum",
    "5224": "esterday",
    "5225": "\u0120difference",
    "5226": "orted",
    "5227": "\u0120luxu",
    "5228": "\u0120golden",
    "5229": "ising",
    "5230": "\u0120kitty",
    "5231": "\u0120Tw",
    "5232": "\u0120cutting",
    "5233": "\u0120season",
    "5234": "aggie",
    "5235": "\u0120nowhere",
    "5236": "\u0120crow",
    "5237": "ah",
    "5238": "\u0120soccer",
    "5239": "\u0120dared",
    "5240": "\u0120bites",
    "5241": "\u0120Henry",
    "5242": "\u0120Harry",
    "5243": "anny",
    "5244": "\u0120lung",
    "5245": "\u0120celebrated",
    "5246": "choo",
    "5247": "chie",
    "5248": "\u0120straight",
    "5249": "\u0120unlocked",
    "5250": "sters",
    "5251": "\u0120sorting",
    "5252": "\u0120collected",
    "5253": "\u0120bleed",
    "5254": "aped",
    "5255": "ding",
    "5256": "\u0120welcomed",
    "5257": "\u0120visited",
    "5258": "\u0120spoons",
    "5259": "\u0120ours",
    "5260": "\u0120stitch",
    "5261": "\u0120jogging",
    "5262": "Surprise",
    "5263": "medi",
    "5264": "\u0120emer",
    "5265": "\u0120Spark",
    "5266": "mediately",
    "5267": "\u0120isn",
    "5268": "\u0120tong",
    "5269": "\u0120trave",
    "5270": "\u0120winner",
    "5271": "umble",
    "5272": "\u0120since",
    "5273": "\u0120ruin",
    "5274": "\u0120prett",
    "5275": "Ok",
    "5276": "Moral",
    "5277": "\u0120Tony",
    "5278": "\u0120attached",
    "5279": "\u0120weeping",
    "5280": "\u0120marching",
    "5281": "\u0120luxury",
    "5282": "\u0120simple",
    "5283": "\u0120Each",
    "5284": "\u0120shouldn",
    "5285": "\u0120guessed",
    "5286": "\u0120zero",
    "5287": "\u0120created",
    "5288": "\u0120stuffed",
    "5289": "\u0120pets",
    "5290": "ction",
    "5291": "\u0120waist",
    "5292": "\u0120famil",
    "5293": "\u0120urged",
    "5294": "\u0120bowed",
    "5295": "\u0120selling",
    "5296": "\u0120floating",
    "5297": "rr",
    "5298": "\u0120Smith",
    "5299": "\u0120bye",
    "5300": "\u0120King",
    "5301": "\u0120vict",
    "5302": "\u0120kingdom",
    "5303": "\u0120olives",
    "5304": "\u0120kicking",
    "5305": "\u0120Wiggly",
    "5306": "\u0120punished",
    "5307": "\u0120Liz",
    "5308": "\u0120Baby",
    "5309": "sit",
    "5310": "\u0120toes",
    "5311": "\u0120grant",
    "5312": "\u0120muscles",
    "5313": "\u0120jewels",
    "5314": "\u0120Rosie",
    "5315": "\u0120beds",
    "5316": "\u0120melted",
    "5317": "Goodbye",
    "5318": "\u0120slice",
    "5319": "\u0120grin",
    "5320": "\u0120understanding",
    "5321": "\u0120collection",
    "5322": "\u0120tore",
    "5323": "\u0120measured",
    "5324": "aker",
    "5325": "\u0120cras",
    "5326": "omeday",
    "5327": "iers",
    "5328": "\u0120trapped",
    "5329": "\u0120lined",
    "5330": "'ve",
    "5331": "\u0120acted",
    "5332": "fortunately",
    "5333": "\u0120encouraged",
    "5334": "va",
    "5335": "\u0120Sandy",
    "5336": "\u0120received",
    "5337": "\u0120waffles",
    "5338": "\u0120Before",
    "5339": "\u0120Wally",
    "5340": "\u0120west",
    "5341": "\u0120meow",
    "5342": "ents",
    "5343": "\u0120patterns",
    "5344": "rin",
    "5345": "ino",
    "5346": "\u0120brus",
    "5347": "eath",
    "5348": "\u0120mouths",
    "5349": "kins",
    "5350": "\u0120bang",
    "5351": "ring",
    "5352": "\u0120Kate",
    "5353": "Meow",
    "5354": "\u0120peaches",
    "5355": "\u0120breeze",
    "5356": "aded",
    "5357": "une",
    "5358": "\u0120printed",
    "5359": "\u0120soldiers",
    "5360": "\u0120someday",
    "5361": "\u0120potatoes",
    "5362": "\u0120pupil",
    "5363": "umes",
    "5364": "\u0120Millie",
    "5365": "\u0120drinks",
    "5366": "\u0120shed",
    "5367": "\u0120experience",
    "5368": "\u0120Tuna",
    "5369": "\u0120presents",
    "5370": "\u0120firef",
    "5371": "\u0120Ruby",
    "5372": "\u0120surround",
    "5373": "\u0120none",
    "5374": "osed",
    "5375": "\u0120voices",
    "5376": "eep",
    "5377": "\u0120drinking",
    "5378": "\u0120Uncle",
    "5379": "ishing",
    "5380": "\u0120relaxed",
    "5381": "\u0120victory",
    "5382": "cus",
    "5383": "\u0120paints",
    "5384": "\u0120breaking",
    "5385": "eve",
    "5386": "\u0120hurried",
    "5387": "ission",
    "5388": "\u0120twink",
    "5389": "\u0120tongue",
    "5390": "\u0120costumes",
    "5391": "\u0120flat",
    "5392": "\u0120mentioned",
    "5393": "\u0120begged",
    "5394": "\u0120teasing",
    "5395": "\u0120whistling",
    "5396": "\u0120fetch",
    "5397": "\u0120permission",
    "5398": "\u0120sip",
    "5399": "\u0120disagreed",
    "5400": "\u0120pearl",
    "5401": "akes",
    "5402": "\u0120stro",
    "5403": "vest",
    "5404": "\u0120These",
    "5405": "\u0120esc",
    "5406": "\u0120appro",
    "5407": "\u0120skipping",
    "5408": "\u0120fishing",
    "5409": "\u0120May",
    "5410": "Leo",
    "5411": "\u0120highest",
    "5412": "\u0120pra",
    "5413": "\u0120watches",
    "5414": "\u0120sorted",
    "5415": "\u0120ringing",
    "5416": "ship",
    "5417": "\u0120tonight",
    "5418": "\u0120Bo",
    "5419": "\u0120opin",
    "5420": "\u0120lets",
    "5421": "icing",
    "5422": "\u0120Qu",
    "5423": "\u0120perfectly",
    "5424": "\u0120shadows",
    "5425": "\u0120immediately",
    "5426": "\u0120herbs",
    "5427": "\u0120warmth",
    "5428": "\u0120spit",
    "5429": "\u0120remained",
    "5430": "ther",
    "5431": "\u0120Its",
    "5432": "walk",
    "5433": "Bobby",
    "5434": "irring",
    "5435": "Jen",
    "5436": "\u0120sneak",
    "5437": "\u0120six",
    "5438": "\u0120lips",
    "5439": "\u0120kneeled",
    "5440": "Blue",
    "5441": "\u0120contest",
    "5442": "\u0120Che",
    "5443": "utter",
    "5444": "\u0120cartoons",
    "5445": "\u0120sidewalk",
    "5446": "\u0120colours",
    "5447": "\u0120stamps",
    "5448": "\u0120ago",
    "5449": "Ha",
    "5450": "\u0120Toto",
    "5451": "\u0120Boo",
    "5452": "\u0120Follow",
    "5453": "\u0120east",
    "5454": "\u0120headed",
    "5455": "oved",
    "5456": "\",",
    "5457": "\u0120strang",
    "5458": "\u0120ladyb",
    "5459": "\u0120fed",
    "5460": "\u0120supposed",
    "5461": "\u0120roots",
    "5462": "\u0120lick",
    "5463": "\u0120crunch",
    "5464": "\u0120mixing",
    "5465": "\u0120works",
    "5466": "\u0120decorations",
    "5467": "\u0120melting",
    "5468": "\u0120known",
    "5469": "\u0120emergen",
    "5470": "Mandy",
    "5471": "\u0120rested",
    "5472": "\u0120Ab",
    "5473": "\u0120lines",
    "5474": "\u0120Suzy",
    "5475": "\u0120lily",
    "5476": "\u0120Jul",
    "5477": "\u0120instr",
    "5478": "\u0120laid",
    "5479": "\u0120Gr",
    "5480": "\u0120succeeded",
    "5481": "\u0120cones",
    "5482": "\u0120wiggle",
    "5483": "ety",
    "5484": "sing",
    "5485": "\u0120shock",
    "5486": "\u0120setting",
    "5487": "\u0120Slow",
    "5488": "\u0120studied",
    "5489": "\u0120strangers",
    "5490": "\u0120Rocky",
    "5491": "Really",
    "5492": "\u0120twigs",
    "5493": "\u0120brid",
    "5494": "\u0120theirs",
    "5495": "\u0120Dr",
    "5496": "\u0120girls",
    "5497": "boo",
    "5498": "!\",",
    "5499": "\u0120screams",
    "5500": "\u0120lands",
    "5501": "\u0120ordered",
    "5502": "\u0120stirring",
    "5503": "\u0120moments",
    "5504": "\u0120fields",
    "5505": "\u0120alright",
    "5506": "\u0120stealing",
    "5507": "ded",
    "5508": "Andy",
    "5509": "\u0120rul",
    "5510": "\u0120bravely",
    "5511": "avid",
    "5512": "\u0120Both",
    "5513": "\u0120mister",
    "5514": "!'",
    "5515": "\u0120invest",
    "5516": "\u0120scratched",
    "5517": "\u0120playtime",
    "5518": "\u0120ripped",
    "5519": "\u0120investig",
    "5520": "\u0120tucked",
    "5521": "\u0120resting",
    "5522": "\u0120burning",
    "5523": "ishes",
    "5524": "\u0120Clara",
    "5525": "\u0120Chicky",
    "5526": "\u0120bridges",
    "5527": "\u0120officer",
    "5528": "please",
    "5529": "Sammy",
    "5530": "Bird",
    "5531": "abies",
    "5532": "\u0120settled",
    "5533": "\u0120matched",
    "5534": "\u0120achie",
    "5535": "\u0120tex",
    "5536": "\u0120texture",
    "5537": "Happy",
    "5538": "\u0120waits",
    "5539": "\u0120turning",
    "5540": "\u0120Sky",
    "5541": "Peter",
    "5542": "ored",
    "5543": "\u0120trembling",
    "5544": "isten",
    "5545": "\u0120nails",
    "5546": "atie",
    "5547": "\u0120muffins",
    "5548": "\u0120Someone",
    "5549": "ids",
    "5550": "\u0120escaped",
    "5551": "\u0120James",
    "5552": "\u0120piles",
    "5553": "\u0120investigate",
    "5554": "osity",
    "5555": "\u0120broom",
    "5556": "\u0120ladybug",
    "5557": "\u0120sore",
    "5558": "\u0120Pepper",
    "5559": "\u0120appreciate",
    "5560": "\u0120admir",
    "5561": "\u0120threat",
    "5562": "\u0120babies",
    "5563": "\u0120silence",
    "5564": "\u0120sisters",
    "5565": "\u0120emergency",
    "5566": "\u0120area",
    "5567": "ides",
    "5568": "\u0120dads",
    "5569": "\u0120answers",
    "5570": "\u0120pupp",
    "5571": "\u0120keys",
    "5572": "\u0120chewing",
    "5573": "\u0120slapped",
    "5574": "\u0120wiz",
    "5575": "\u0120importance",
    "5576": "Boo",
    "5577": "\u0120served",
    "5578": "\u0120Hop",
    "5579": "\u0120safety",
    "5580": "izing",
    "5581": "Bu",
    "5582": "Would",
    "5583": "\u0120sparkle",
    "5584": "\u0120touching",
    "5585": "\u0120Later",
    "5586": "\u0120soared",
    "5587": "igail",
    "5588": "\u0120sings",
    "5589": "\u0120hen",
    "5590": "allen",
    "5591": "Ella",
    "5592": "bers",
    "5593": "antly",
    "5594": "Momo",
    "5595": "\u0120Dino",
    "5596": "\u0120keeps",
    "5597": "\u0120amazement",
    "5598": "\u0120challen",
    "5599": "\u0120twin",
    "5600": "\u0120hesit",
    "5601": "\u0120revealed",
    "5602": "anna",
    "5603": "achel",
    "5604": "\u0120item",
    "5605": "\u0120dire",
    "5606": "\u0120soaked",
    "5607": "zing",
    "5608": "\u0120writ",
    "5609": "\u0120foods",
    "5610": "\u0120rides",
    "5611": "\u0120dinosaurs",
    "5612": "\u0120recorded",
    "5613": "\u0120tickle",
    "5614": "\u0120inch",
    "5615": "\u0120Zigzag",
    "5616": "\u0120Me",
    "5617": "\u0120wizard",
    "5618": "\u0120vet",
    "5619": "\u0120trips",
    "5620": "\u0120glowed",
    "5621": "\u0120An",
    "5622": "\u0120Frog",
    "5623": "Mmm",
    "5624": "\u0120hi",
    "5625": "\u0120beamed",
    "5626": "\u0120quack",
    "5627": "\u0120curled",
    "5628": "\u0120hated",
    "5629": "\u0120wink",
    "5630": "\u0120shopping",
    "5631": "\u0120eats",
    "5632": "Eventually",
    "5633": "\u0120Bug",
    "5634": "\u0120praised",
    "5635": "\u0120wooden",
    "5636": "\u0120bringing",
    "5637": "\u0120mittens",
    "5638": "\u0120studying",
    "5639": "\u0120guy",
    "5640": "\u0120brushes",
    "5641": "\u0120spaceship",
    "5642": "\u0120gust",
    "5643": "\u0120crawling",
    "5644": "\u0120Something",
    "5645": "Cat",
    "5646": "\u0120ruler",
    "5647": "\u0120flav",
    "5648": "\u0120downstairs",
    "5649": "\u0120shooting",
    "5650": "\u0120tastes",
    "5651": "\u0120napping",
    "5652": "\u0120sprinkles",
    "5653": "\u0120marks",
    "5654": "\u0120cuddled",
    "5655": "\u0120dot",
    "5656": "hello",
    "5657": "plash",
    "5658": "\u0120fut",
    "5659": "ales",
    "5660": "aved",
    "5661": "\u0120future",
    "5662": "\u0120monsters",
    "5663": "\u0120collecting",
    "5664": "\u0120measuring",
    "5665": "\u0120Happy",
    "5666": "'.",
    "5667": "\u0120families",
    "5668": "\u0120Out",
    "5669": "\u0120First",
    "5670": "\u0120Mo",
    "5671": "\u0120thrill",
    "5672": "\u0120oat",
    "5673": "irts",
    "5674": "\u0120result",
    "5675": "Jake",
    "5676": "\u0120approached",
    "5677": "\u0120Rabbit",
    "5678": "\u0120crunchy",
    "5679": "act",
    "5680": "Un",
    "5681": "\u0120remem",
    "5682": "\u0120bleeding",
    "5683": "\u0120remembers",
    "5684": "\u0120nicer",
    "5685": "\u0120beat",
    "5686": "\u0120sneaky",
    "5687": "\u0120disturbed",
    "5688": "\u0120leader",
    "5689": "\u0120scaring",
    "5690": "Or",
    "5691": "hind",
    "5692": "\u0120peel",
    "5693": "\u0120Hope",
    "5694": "\u0120firemen",
    "5695": "\u0120neighborhood",
    "5696": "\u0120Star",
    "5697": "\u0120grey",
    "5698": "\u0120Not",
    "5699": "\u0120motion",
    "5700": "\u0120noon",
    "5701": "\u0120possible",
    "5702": "Emily",
    "5703": "Somet",
    "5704": "\u0120apologized",
    "5705": "\u0120weighed",
    "5706": "ues",
    "5707": "\u0120Did",
    "5708": "\u0120tickets",
    "5709": "Cl",
    "5710": "\u0120naps",
    "5711": "\u0120loose",
    "5712": "\u0120pride",
    "5713": "\u0120youth",
    "5714": "\u0120swims",
    "5715": "ped",
    "5716": "\u0120strings",
    "5717": "\u0120recognized",
    "5718": "\u0120siren",
    "5719": "\u0120poking",
    "5720": "fied",
    "5721": "\u0120Ho",
    "5722": "cious",
    "5723": "ha",
    "5724": "elvet",
    "5725": "\u0120tricked",
    "5726": "\u0120wonders",
    "5727": "\u0120gained",
    "5728": "\u0120wanting",
    "5729": "\u0120crashed",
    "5730": "\u0120obe",
    "5731": "\u0120seesaw",
    "5732": "\u0120worker",
    "5733": "unnies",
    "5734": "ls",
    "5735": "oming",
    "5736": "\u0120draws",
    "5737": "\u0120scooped",
    "5738": ".'",
    "5739": "\u0120zooming",
    "5740": "\u0120opinion",
    "5741": "\u0120yelling",
    "5742": "\u0120prepared",
    "5743": "\u0120grinned",
    "5744": "\u0120Slowly",
    "5745": "\u0120awe",
    "5746": "\u0120poems",
    "5747": "\u0120doggy",
    "5748": "\u0120acting",
    "5749": "\u0120Beep",
    "5750": "\u0120happiest",
    "5751": "\u0120chef",
    "5752": "\u0120sneaked",
    "5753": "\u0120respons",
    "5754": "\u0120eff",
    "5755": "\u0120Always",
    "5756": "\u0120Lizzy",
    "5757": "\u0120owned",
    "5758": "\u0120bunnies",
    "5759": "\u0120anytime",
    "5760": "\u0120struck",
    "5761": "\u0120pedals",
    "5762": "oys",
    "5763": "\u0120knelt",
    "5764": "ena",
    "5765": "Ollie",
    "5766": "\u0120secrets",
    "5767": "\u0120pause",
    "5768": "\u0120decorated",
    "5769": "\u0120horns",
    "5770": "\u0120agreement",
    "5771": "\u0120Squ",
    "5772": "ided",
    "5773": "\u0120frost",
    "5774": "\u0120tallest",
    "5775": "\u0120obey",
    "5776": "Remember",
    "5777": "riends",
    "5778": "ogo",
    "5779": "\u0120Stop",
    "5780": "Have",
    "5781": "\u0120decides",
    "5782": "\u0120Once",
    "5783": "\u0120behaved",
    "5784": "\u0120tugged",
    "5785": "\u0120sides",
    "5786": "\u0120woof",
    "5787": "\u0120slim",
    "5788": "zen",
    "5789": "\u0120goodnight",
    "5790": "\u0120keeper",
    "5791": "\u0120sparkling",
    "5792": "\u0120chirped",
    "5793": "\u0120precious",
    "5794": "mother",
    "5795": "lier",
    "5796": "ien",
    "5797": "Tr",
    "5798": "\u0120repeated",
    "5799": "\u0120claps",
    "5800": "indy",
    "5801": "affes",
    "5802": "\u0120snowballs",
    "5803": "\u0120contain",
    "5804": "ud",
    "5805": "rs",
    "5806": "\u0120Ray",
    "5807": "\u0120ourselves",
    "5808": "allow",
    "5809": "\u0120giraffes",
    "5810": "\u0120balancing",
    "5811": "\u0120kindly",
    "5812": "\u0120spending",
    "5813": "\u0120writes",
    "5814": "ays",
    "5815": "ppers",
    "5816": "\u0120Like",
    "5817": "omas",
    "5818": "\u0120prop",
    "5819": "\u0120hissed",
    "5820": "First",
    "5821": "\u0120frozen",
    "5822": "\u0120frosting",
    "5823": "\u0120effort",
    "5824": "\u0120buzzing",
    "5825": "\u0120struggled",
    "5826": "oh",
    "5827": "\u0120Steve",
    "5828": "\u0120admiring",
    "5829": "\u0120rele",
    "5830": "iggy",
    "5831": "\u0120sweeties",
    "5832": "\u0120Velvet",
    "5833": "\u0120slimy",
    "5834": "\u0120brushed",
    "5835": "\u0120bloomed",
    "5836": "Susie",
    "5837": "\u0120Am",
    "5838": "\u0120polished",
    "5839": "\u0120Zoe",
    "5840": "arth",
    "5841": "anted",
    "5842": "\u0120comfy",
    "5843": "\u0120boo",
    "5844": "\u0120staying",
    "5845": "\u0120rubbing",
    "5846": "Ducky",
    "5847": "\u0120rocking",
    "5848": "\u0120pockets",
    "5849": "\u0120thrilled",
    "5850": "\u0120beside",
    "5851": "\u0120comple",
    "5852": "\u0120Aunt",
    "5853": "\u0120Maggie",
    "5854": "Ah",
    "5855": "\u0120eight",
    "5856": "urry",
    "5857": "isdom",
    "5858": "\u0120machines",
    "5859": "\u0120earlier",
    "5860": "\u0120yesterday",
    "5861": "\u0120seems",
    "5862": "\u0120rust",
    "5863": "\u0120Keep",
    "5864": "Sp",
    "5865": "\u0120traveled",
    "5866": "\u0120folding",
    "5867": "\u0120boom",
    "5868": "\u0120cracked",
    "5869": "ities",
    "5870": "\u0120hugging",
    "5871": "\u0120radishes",
    "5872": "\u0120Stitch",
    "5873": "\u0120opening",
    "5874": "\u0120loving",
    "5875": "\u0120circus",
    "5876": "\u0120surrounded",
    "5877": "\u0120curiosity",
    "5878": "\u0120Rachel",
    "5879": "\u0120spraying",
    "5880": "\u0120demanded",
    "5881": "\u0120paintings",
    "5882": "amie",
    "5883": "\u0120Green",
    "5884": "\u0120removed",
    "5885": "\u0120gaze",
    "5886": "\u0120honk",
    "5887": "\u0120pebbles",
    "5888": "\u0120zookeeper",
    "5889": "\u0120hardly",
    "5890": "\u0120catches",
    "5891": "edding",
    "5892": "\u0120sting",
    "5893": "\u0120stripes",
    "5894": "\u0120powers",
    "5895": "\u0120loaded",
    "5896": "\u0120Pippa",
    "5897": "Sometimes",
    "5898": "\u0120splashes",
    "5899": "\u0120pots",
    "5900": "\u0120petted",
    "5901": "\u0120matching",
    "5902": "\u0120David",
    "5903": "Thanks",
    "5904": "\u0120toss",
    "5905": "\u0120stare",
    "5906": "\u0120belly",
    "5907": "Yummy",
    "5908": "ibb",
    "5909": "\u0120whatever",
    "5910": "\u0120apologize",
    "5911": "\u0120rocked",
    "5912": "\u0120comforted",
    "5913": "\u0120Bree",
    "5914": "\u0120decision",
    "5915": "\u0120ribbons",
    "5916": "\u0120Joy",
    "5917": "\u0120Birdie",
    "5918": "ern",
    "5919": "\u0120struggling",
    "5920": "\u0120expected",
    "5921": "\u0120deser",
    "5922": "\u0120steep",
    "5923": "wh",
    "5924": "\u0120protected",
    "5925": "\u0120neighbors",
    "5926": "\u0120smiley",
    "5927": "\u0120chases",
    "5928": "During",
    "5929": "\u0120granted",
    "5930": "\u0120crumb",
    "5931": "\u0120Mat",
    "5932": "\u0120purred",
    "5933": "\u0120diving",
    "5934": "\u0120sadness",
    "5935": "Whiskers",
    "5936": "\u0120organizing",
    "5937": "lowers",
    "5938": "\u0120eagle",
    "5939": "\u0120heroes",
    "5940": "\u0120dipped",
    "5941": "\u0120sunlight",
    "5942": "\u0120lied",
    "5943": "\u0120pastels",
    "5944": "\u0120Frank",
    "5945": "Ex",
    "5946": "\u0120safer",
    "5947": "\u0120roads",
    "5948": "\u0120scru",
    "5949": "\u0120argued",
    "5950": "\u0120Milly",
    "5951": "\u0120goals",
    "5952": "\u0120Water",
    "5953": "\u0120discovery",
    "5954": "\u0120Abigail",
    "5955": "\u0120villag",
    "5956": "\u0120peered",
    "5957": "Ro",
    "5958": "\u0120Bouncy",
    "5959": "use",
    "5960": "ana",
    "5961": "loe",
    "5962": "\u0120tim",
    "5963": "\u0120dragons",
    "5964": "\u0120buildings",
    "5965": "\u0120buckets",
    "5966": "\u0120parties",
    "5967": "\u0120beard",
    "5968": "\u0120wedding",
    "5969": "Rex",
    "5970": "\u0120flutter",
    "5971": "\u0120planets",
    "5972": "\u0120ann",
    "5973": "\u0120Robby",
    "5974": "\u0120polishing",
    "5975": "\u0120fasc",
    "5976": "ira",
    "5977": "\u0120released",
    "5978": "\u0120Chr",
    "5979": "\u0120crabs",
    "5980": "\u0120Gogo",
    "5981": "\u0120tails",
    "5982": "\u0120Watch",
    "5983": "\u0120sausages",
    "5984": "\u0120Ju",
    "5985": "\u0120argu",
    "5986": "\u0120contro",
    "5987": "\u0120bottles",
    "5988": "\u0120wiggled",
    "5989": "\u0120teased",
    "5990": "uke",
    "5991": "\u0120arguing",
    "5992": "\u0120sled",
    "5993": "\u0120dragged",
    "5994": "\u0120padd",
    "5995": "\u0120Car",
    "5996": "\u0120roaring",
    "5997": "\u0120clearing",
    "5998": "\u0120shirts",
    "5999": "\u0120movies",
    "6000": "\u0120gathering",
    "6001": "\u0120airpl",
    "6002": "\u0120wid",
    "6003": "joyed",
    "6004": "\u0120teaches",
    "6005": "\u0120spiders",
    "6006": "\u0120limes",
    "6007": "\u0120Remember",
    "6008": "\u0120Dare",
    "6009": "\u0120overjoyed",
    "6010": "\u0120actually",
    "6011": "\u0120sighs",
    "6012": "\u0120continue",
    "6013": "\u0120cuddle",
    "6014": "\u0120soaring",
    "6015": "\u0120smallest",
    "6016": "\u0120Jess",
    "6017": "\u0120drives",
    "6018": "\u0120sparkles",
    "6019": "\u0120rip",
    "6020": "\u0120situ",
    "6021": "\u0120cubes",
    "6022": "\u0120refres",
    "6023": "\u0120talent",
    "6024": "\u0120challenge",
    "6025": "\u0120Olly",
    "6026": "\u0120grandmother",
    "6027": "\u0120Splash",
    "6028": "\u0120pouring",
    "6029": "umm",
    "6030": "\u0120pretends",
    "6031": "\u0120fascin",
    "6032": "\u0120cuts",
    "6033": "\u0120quarreling",
    "6034": "\u0120peppers",
    "6035": "\u0120bank",
    "6036": "\u0120shivered",
    "6037": "\u0120mane",
    "6038": "\u0120dusty",
    "6039": "ley",
    "6040": "\u0120wondering",
    "6041": "\u0120villagers",
    "6042": "\u0120stretching",
    "6043": "njoy",
    "6044": "ib",
    "6045": "\u0120weeks",
    "6046": "\u0120wherever",
    "6047": "\u0120darker",
    "6048": "jam",
    "6049": "Tiny",
    "6050": "sses",
    "6051": "\u0120X",
    "6052": "\u0120rings",
    "6053": "\u0120onwards",
    "6054": "\u0120Katie",
    "6055": "\u0120united",
    "6056": "Achoo",
    "6057": "\u0120bead",
    "6058": "\u0120Everyday",
    "6059": "\u0120Being",
    "6060": "\u0120prettiest",
    "6061": "Johnny",
    "6062": "\u0120caut",
    "6063": "\u0120realize",
    "6064": "\u0120company",
    "6065": "\u0120penguins",
    "6066": "annah",
    "6067": "Luna",
    "6068": "Fr",
    "6069": "\u0120Spring",
    "6070": "\u0120bedtime",
    "6071": "\u0120completed",
    "6072": "\u0120Wisdom",
    "6073": "\u0120Leave",
    "6074": "\u00e2\u0122\u013f.",
    "6075": "\u0120knights",
    "6076": "\u0120flags",
    "6077": "\u0120Je",
    "6078": "\u0120Because",
    "6079": "\u0120playroom",
    "6080": "\u0120Prin",
    "6081": "\u0120actions",
    "6082": "\u0120Zero",
    "6083": "\u0120learns",
    "6084": "\u0120gotten",
    "6085": "\u0120patience",
    "6086": "inda",
    "6087": "dam",
    "6088": "\u0120shrug",
    "6089": "\u0120kites",
    "6090": "\u0120responsible",
    "6091": "\u0120fears",
    "6092": "\u0120destination",
    "6093": "\u0120wires",
    "6094": "\u0120reply",
    "6095": "\u0120wrist",
    "6096": "\u0120dam",
    "6097": "aws",
    "6098": "\u0120packing",
    "6099": "\u0120mountains",
    "6100": "\u0120fault",
    "6101": "\u0120applauded",
    "6102": "\u0120scrubbed",
    "6103": "\u0120ma",
    "6104": "\u0120crept",
    "6105": "\u0120Ava",
    "6106": "Uh",
    "6107": "\u0120Earth",
    "6108": "\u0120satis",
    "6109": "\u0120third",
    "6110": "\u0120phot",
    "6111": "\u0120pencils",
    "6112": "\u0120wins",
    "6113": "\u0120sticking",
    "6114": "\u0120baker",
    "6115": "\u0120visiting",
    "6116": "\u0120wound",
    "6117": "\u0120uses",
    "6118": "\u0120peas",
    "6119": "\u0120reminder",
    "6120": "\u0120control",
    "6121": "ashed",
    "6122": "Grandpa",
    "6123": "\u0120joking",
    "6124": "\u0120awake",
    "6125": "\u0120instruct",
    "6126": "\u0120staring",
    "6127": "\u0120healed",
    "6128": "\u0120Put",
    "6129": "\u0120hitting",
    "6130": "\u0120Fish",
    "6131": "\u0120screaming",
    "6132": "\u0120begin",
    "6133": "Rob",
    "6134": "uckily",
    "6135": "\u0120Friends",
    "6136": "\u0120Moo",
    "6137": "icorn",
    "6138": "\u0120helmets",
    "6139": "enty",
    "6140": "\u0120unicorn",
    "6141": "ler",
    "6142": "seek",
    "6143": "\u0120towels",
    "6144": "Silly",
    "6145": "\u0120Lou",
    "6146": "\u0120chips",
    "6147": "ica",
    "6148": "\u0120creation",
    "6149": "\u0120wasted",
    "6150": "bie",
    "6151": "Mar",
    "6152": "\u0120Behind",
    "6153": "laire",
    "6154": "\u0120masks",
    "6155": "\u0120items",
    "6156": "\u0120forgi",
    "6157": "\u0120firefight",
    "6158": "\u0120outdo",
    "6159": "\u0120lollipops",
    "6160": "Watch",
    "6161": "\u0120heav",
    "6162": "\u0120guns",
    "6163": "\u0120died",
    "6164": "\u0120Hippy",
    "6165": "\u0120seas",
    "6166": "\u0120glitter",
    "6167": "uddles",
    "6168": "\u0120arrive",
    "6169": "\u0120weren",
    "6170": "\u0120stole",
    "6171": "\u0120scales",
    "6172": "\u0120perched",
    "6173": "\u0120accom",
    "6174": "\u0120logs",
    "6175": "\u0120achieve",
    "6176": "die",
    "6177": "\u0120practicing",
    "6178": "ining",
    "6179": "\u0120whose",
    "6180": "Stay",
    "6181": "\u0120pumpkins",
    "6182": "\u0120instructions",
    "6183": "\u0120swoop",
    "6184": "\u0120batteries",
    "6185": "\u0120candies",
    "6186": "\u0120agrees",
    "6187": "\u0120project",
    "6188": "\u0120snakes",
    "6189": "\u0120chirping",
    "6190": "Benny",
    "6191": "\u0120shelves",
    "6192": "\u0120protecting",
    "6193": "\u0120parked",
    "6194": "\u0120exact",
    "6195": "\u0120Cra",
    "6196": "\u0120patiently",
    "6197": "\u0120activ",
    "6198": "\u0120videos",
    "6199": "\u0120shoulders",
    "6200": "\u0120blows",
    "6201": "hee",
    "6202": "Fo",
    "6203": "\u0120promises",
    "6204": "go",
    "6205": "\u0120dent",
    "6206": "usan",
    "6207": "uest",
    "6208": "ners",
    "6209": "jamas",
    "6210": "\u0120examined",
    "6211": "\u0120airplane",
    "6212": "Doggy",
    "6213": "\u0120roses",
    "6214": "\u0120accompl",
    "6215": "\u0120tasks",
    "6216": "Dave",
    "6217": "\u0120Hoot",
    "6218": "Poppy",
    "6219": "\u0120Bop",
    "6220": "Bunny",
    "6221": "\u0120beads",
    "6222": "\u0120bowls",
    "6223": "\u0120crumbs",
    "6224": "zes",
    "6225": "\u0120listens",
    "6226": "\u0120Love",
    "6227": "\u0120Catty",
    "6228": "\u0120Brownie",
    "6229": "Pete",
    "6230": "\u0120Ol",
    "6231": "\u0120dolphins",
    "6232": "\u0120cough",
    "6233": "\u0120bunch",
    "6234": "\u0120guest",
    "6235": "cakes",
    "6236": "\u0120requested",
    "6237": "\u0120remote",
    "6238": "\u0120improved",
    "6239": "anta",
    "6240": "\u0120reaching",
    "6241": "\u0120brand",
    "6242": "\u0120Jan",
    "6243": "ayla",
    "6244": "\u0120alien",
    "6245": "\u0120Bye",
    "6246": "irm",
    "6247": "\u0120copy",
    "6248": "\u0120Sun",
    "6249": "\u0120cheering",
    "6250": "\u0120photos",
    "6251": "\u0120Julie",
    "6252": "\u0120Chew",
    "6253": "Bad",
    "6254": "\u0120Blink",
    "6255": "Time",
    "6256": "\u0120cans",
    "6257": "\u0120Cuddles",
    "6258": "\u0120timer",
    "6259": "\u0120By",
    "6260": "\u0120replaced",
    "6261": "athy",
    "6262": "\u0120workers",
    "6263": "\u0120stern",
    "6264": "\u0120Enjoy",
    "6265": "aster",
    "6266": "\u0120neither",
    "6267": "Mike",
    "6268": "\u0120passing",
    "6269": "\u0120misses",
    "6270": "\u0120curtains",
    "6271": "\u0120confl",
    "6272": "Chirpy",
    "6273": "\u0120rainbows",
    "6274": "\u0120rubs",
    "6275": "George",
    "6276": "uctantly",
    "6277": "\u0120rolls",
    "6278": "\u0120patted",
    "6279": "ilo",
    "6280": "\u0120pajamas",
    "6281": "\u0120outdoors",
    "6282": "esome",
    "6283": "dies",
    "6284": "\u0120complaining",
    "6285": "\u0120Squirrel",
    "6286": "\u0120\u0120",
    "6287": "Lola",
    "6288": "Run",
    "6289": "\u0120puppet",
    "6290": "\u0120Princess",
    "6291": "\u0120closes",
    "6292": "\u0120beneath",
    "6293": "\u0120lap",
    "6294": "\u0120drums",
    "6295": "\u0120tune",
    "6296": "\u0120Beth",
    "6297": "\u0120Mouse",
    "6298": "\u0120filling",
    "6299": "Miss",
    "6300": "angled",
    "6301": "\u0120refuse",
    "6302": "\u0120Sorry",
    "6303": "\u0120sweat",
    "6304": "\u0120faced",
    "6305": "...",
    "6306": "\u0120seven",
    "6307": "\u0120balanced",
    "6308": "\u0120rescued",
    "6309": "neath",
    "6310": "bl",
    "6311": "\u0120quacked",
    "6312": "\u0120Abby",
    "6313": "Paul",
    "6314": "istle",
    "6315": "\u0120awesome",
    "6316": "\u01201",
    "6317": "\u0120mission",
    "6318": "\u0120However",
    "6319": "\u0120guys",
    "6320": "\u0120conflict",
    "6321": "\u0120cautious",
    "6322": "\u0120vent",
    "6323": "\u0120observed",
    "6324": "\u0120cause",
    "6325": "\u0120introduc",
    "6326": "\u0120Thomas",
    "6327": "\u0120pastries",
    "6328": "nie",
    "6329": "\u0120Our",
    "6330": "\u0120exactly",
    "6331": "\u0120doctors",
    "6332": "\u0120rule",
    "6333": "\u0120becoming",
    "6334": "\u0120policeman",
    "6335": "\u0120mes",
    "6336": "uly",
    "6337": "\u0120rockets",
    "6338": "you",
    "6339": "\u0120Yes",
    "6340": "\u0120Dot",
    "6341": "\u0120fairies",
    "6342": "lay",
    "6343": "\u0120pout",
    "6344": "An",
    "6345": "\u0120insist",
    "6346": "\u0120blooming",
    "6347": "\u0120tractor",
    "6348": "\u0120farther",
    "6349": "\u0120Sad",
    "6350": "avi",
    "6351": "Oops",
    "6352": "Great",
    "6353": "\u0120remembering",
    "6354": "\u0120included",
    "6355": "\u0120curly",
    "6356": "Zoom",
    "6357": "Fine",
    "6358": "\u0120teamwork",
    "6359": "zie",
    "6360": "\u0120fascinated",
    "6361": "\u0120wobbled",
    "6362": "\u0120slam",
    "6363": "\u0120truly",
    "6364": "\u0120helpers",
    "6365": "\u0120sights",
    "6366": "\u0120paddle",
    "6367": "\u0120stumble",
    "6368": "\u0120firm",
    "6369": "Henry",
    "6370": "\u0120Jilly",
    "6371": "acob",
    "6372": "\u0120caused",
    "6373": "\u0120prayer",
    "6374": "\u0120spong",
    "6375": "\u0120recording",
    "6376": "kelly",
    "6377": "ais",
    "6378": "\u0120traded",
    "6379": "\u0120starfish",
    "6380": "\u0120supplies",
    "6381": "\u0120thro",
    "6382": "\u0120pointy",
    "6383": "\u0120situation",
    "6384": "\u0120inviting",
    "6385": "eah",
    "6386": "gers",
    "6387": "\u0120neighbourhood",
    "6388": "\u0120everyday",
    "6389": "\u0120ornaments",
    "6390": "\u0120Ally",
    "6391": "inkle",
    "6392": "\u0120valued",
    "6393": "\u0120adding",
    "6394": "Some",
    "6395": "\u0120reluctantly",
    "6396": "\u0120dots",
    "6397": "\u0120stays",
    "6398": "\u0120tables",
    "6399": "\u0120prettier",
    "6400": "\u0120bare",
    "6401": "\u0120desert",
    "6402": "\u0120snowmen",
    "6403": "\u0120steady",
    "6404": "\u0120minerals",
    "6405": "araway",
    "6406": "\u0120thorn",
    "6407": "ody",
    "6408": "\u0120ast",
    "6409": "\u0120glasses",
    "6410": "\u0120faraway",
    "6411": "\u0120Get",
    "6412": "\u0120Foxy",
    "6413": "\u0120swooped",
    "6414": "\u0120Welcome",
    "6415": "\u0120Two",
    "6416": "\u0120Sure",
    "6417": "\u0120unf",
    "6418": "\u0120forks",
    "6419": "\u0120usually",
    "6420": "\u0120usual",
    "6421": "Polly",
    "6422": "\u0120dar",
    "6423": "\u0120Jamie",
    "6424": "\u0120winked",
    "6425": "\u0120sneezing",
    "6426": "\u0120solut",
    "6427": "\u0120loading",
    "6428": "\u0120sponge",
    "6429": "\u0120Quick",
    "6430": "\u0120insects",
    "6431": "\u0120pans",
    "6432": "Dog",
    "6433": "\u0120sobbed",
    "6434": "\u0120Santa",
    "6435": "James",
    "6436": "\u0120growling",
    "6437": "sm",
    "6438": "arter",
    "6439": "\u0120throat",
    "6440": "\u0120Chloe",
    "6441": "\u0120noses",
    "6442": "\u0120Josh",
    "6443": "\u0120Dizzy",
    "6444": "\u0120scarves",
    "6445": "\u0120confident",
    "6446": "\u0120yourselves",
    "6447": "\u0120Want",
    "6448": "agull",
    "6449": "\u0120homework",
    "6450": "\u0120superheroes",
    "6451": "\u0120Stay",
    "6452": "Joey",
    "6453": "\u0120smarter",
    "6454": "\u0120windy",
    "6455": "\u0120librarian",
    "6456": "Tina",
    "6457": "\u0120Kids",
    "6458": "\u0120gems",
    "6459": "Days",
    "6460": "ora",
    "6461": "\u0120underneath",
    "6462": "\u0120kicks",
    "6463": "\u0120knowled",
    "6464": "\u0120itchy",
    "6465": "\u0120knowledge",
    "6466": "\u0120jackets",
    "6467": "\u0120Skelly",
    "6468": "\u0120For",
    "6469": "\u0120surface",
    "6470": "\u0120untie",
    "6471": "\u0120comm",
    "6472": "\u0120Duck",
    "6473": "\u0120princesses",
    "6474": "...\"",
    "6475": "Those",
    "6476": "ido",
    "6477": "eed",
    "6478": "Hold",
    "6479": "Yeah",
    "6480": "coon",
    "6481": "\u0120squares",
    "6482": "\u0120Henny",
    "6483": "\u0120warnings",
    "6484": "\u0120giggling",
    "6485": "iar",
    "6486": "\u0120reads",
    "6487": "vin",
    "6488": "Our",
    "6489": "\u0120choo",
    "6490": "son",
    "6491": "\u0120younger",
    "6492": "\u0120clowns",
    "6493": "\u0120Mix",
    "6494": "Toby",
    "6495": "\u0120ropes",
    "6496": "\u0120biting",
    "6497": "\u0120crowd",
    "6498": "\u0120Unfortunately",
    "6499": "pite",
    "6500": "Danny",
    "6501": "True",
    "6502": "\u0120seagull",
    "6503": "\u0120paddled",
    "6504": "\u0120wears",
    "6505": "\u0120delivered",
    "6506": "\u0120Mon",
    "6507": "\u0120twirl",
    "6508": "\u0120onions",
    "6509": "\u0120buzzed",
    "6510": "\u0120complained",
    "6511": "\u0120bumpy",
    "6512": "\u0120stem",
    "6513": "Ew",
    "6514": "\u0120piggy",
    "6515": "Mrs",
    "6516": "\u0120Anne",
    "6517": "\u0120direction",
    "6518": "ouch",
    "6519": "\u0120dived",
    "6520": "Roar",
    "6521": "\u0120tangled",
    "6522": "\u0120startled",
    "6523": "ults",
    "6524": "\u0120leaning",
    "6525": "bbie",
    "6526": "\u0120Ant",
    "6527": "\u0120Jones",
    "6528": "\u0120badge",
    "6529": "\u0120Po",
    "6530": "Grace",
    "6531": "\u0120unp",
    "6532": "\u0120deal",
    "6533": "though",
    "6534": "Annie",
    "6535": "\u0120vowed",
    "6536": "\u0120napkins",
    "6537": "anes",
    "6538": "\u0120tickled",
    "6539": "\u0120risk",
    "6540": "\u0120covers",
    "6541": "\u0120pec",
    "6542": "Shh",
    "6543": "\u0120yells",
    "6544": "\u0120satisfied",
    "6545": "int",
    "6546": "\u0120knocks",
    "6547": "\u0120refreshed",
    "6548": "tuce",
    "6549": "\u0120Sc",
    "6550": "cuse",
    "6551": "\u0120cous",
    "6552": "\u0120arrows",
    "6553": "Maggie",
    "6554": "\u0120Whistle",
    "6555": "Pe",
    "6556": "\u0120wipes",
    "6557": "\u0120speaking",
    "6558": "\u0120lettuce",
    "6559": "\u0120guessing",
    "6560": "Unfortunately",
    "6561": "\u0120Quack",
    "6562": "\u0120ripe",
    "6563": "\u0120Susan",
    "6564": "\u0120hides",
    "6565": "\u0120choices",
    "6566": "\u0120Dodo",
    "6567": "\u0120Rover",
    "6568": "Buzz",
    "6569": "\u0120signed",
    "6570": "\u0120slower",
    "6571": "\u0120seeker",
    "6572": "\u0120introduced",
    "6573": "\u0120singer",
    "6574": "\u0120creating",
    "6575": "\u0120Matt",
    "6576": "\u0120froze",
    "6577": "\u0120cent",
    "6578": "uggles",
    "6579": "\u0120joked",
    "6580": "\u0120squeal",
    "6581": "\u0120toaster",
    "6582": "\u0120explorers",
    "6583": "fit",
    "6584": "\u0120avo",
    "6585": "anging",
    "6586": "Sophie",
    "6587": "\u0120praying",
    "6588": "\u0120written",
    "6589": "\u0120discovering",
    "6590": "\u0120provided",
    "6591": "\u0120Dara",
    "6592": "\u0120refle",
    "6593": "\u0120Lion",
    "6594": "Excuse",
    "6595": "\u0120mushrooms",
    "6596": "\u0120Jeff",
    "6597": "\u0120Paws",
    "6598": "\u0120paying",
    "6599": "\u0120knees",
    "6600": "ences",
    "6601": "\u0120hider",
    "6602": "\u0120wandering",
    "6603": "\u0120Ash",
    "6604": "\u0120images",
    "6605": "Charlie",
    "6606": "\u0120stung",
    "6607": "\u0120Wink",
    "6608": "\u0120magnets",
    "6609": "\u0120barely",
    "6610": "\u0120behaving",
    "6611": "\u0120tipto",
    "6612": "?\",",
    "6613": "\u0120marked",
    "6614": "brush",
    "6615": "rrr",
    "6616": "\u0120restored",
    "6617": "\u0120Dee",
    "6618": "\u0120leading",
    "6619": "lled",
    "6620": "\u0120chuck",
    "6621": "ados",
    "6622": "\u0120nine",
    "6623": "\u0120greet",
    "6624": "Teddy",
    "6625": "\u0120gears",
    "6626": "\u0120bravery",
    "6627": "\u0120Snuggles",
    "6628": "ky",
    "6629": "\u0120competition",
    "6630": "eal",
    "6631": "\u0120outfit",
    "6632": "oline",
    "6633": "\u0120wishing",
    "6634": "\u0120properly",
    "6635": "\u0120ventured",
    "6636": "tle",
    "6637": "aa",
    "6638": "\u0120muscle",
    "6639": "\u0120dances",
    "6640": "\u0120chat",
    "6641": "\u0120salty",
    "6642": "\u0120pens",
    "6643": "amb",
    "6644": "\u0120Betsy",
    "6645": "\u0120ranger",
    "6646": "\u0120Ziggy",
    "6647": "\u0120deserve",
    "6648": "\u0120however",
    "6649": "sequ",
    "6650": "\u0120matters",
    "6651": "\u0120darkness",
    "6652": "\u0120burst",
    "6653": "\u0120Fu",
    "6654": "\u0120rainy",
    "6655": "\u0120cobwebs",
    "6656": "\u0120ruining",
    "6657": "\u0120chefs",
    "6658": "\u0120consequ",
    "6659": "\u0120blocking",
    "6660": "\u0120bak",
    "6661": "usted",
    "6662": "itely",
    "6663": "sty",
    "6664": "\u0120scur",
    "6665": "\u0120vines",
    "6666": "\u0120fab",
    "6667": "abel",
    "6668": "\u0120fabric",
    "6669": "\u0120entire",
    "6670": "\u0120basement",
    "6671": "\u0120performed",
    "6672": "\u0120least",
    "6673": "\u0120Buggy",
    "6674": "Sn",
    "6675": "\u0120scratches",
    "6676": "\u0120heavier",
    "6677": "\u0120Claire",
    "6678": "\u0120mints",
    "6679": "\u0120twirling",
    "6680": "\u0120avocados",
    "6681": "However",
    "6682": "\u0120Linda",
    "6683": "rink",
    "6684": "fl",
    "6685": "\u0120scurried",
    "6686": "\u0120losing",
    "6687": "\u0120sunflowers",
    "6688": "\u0120Jenna",
    "6689": "\u0120rainco",
    "6690": "\u0120swords",
    "6691": "Tweet",
    "6692": "\u0120click",
    "6693": "agic",
    "6694": "\u0120Laser",
    "6695": "\u0120silent",
    "6696": "\u0120jobs",
    "6697": "\u0120necklaces",
    "6698": "\u0120flames",
    "6699": "\u0120Luke",
    "6700": "\u0120relief",
    "6701": "\u0120Grumpy",
    "6702": "\u0120snat",
    "6703": "\u0120sewed",
    "6704": "\u0120rotting",
    "6705": "len",
    "6706": "Listen",
    "6707": "Follow",
    "6708": "\u0120tricky",
    "6709": "Jerry",
    "6710": "\u0120lighter",
    "6711": "ophia",
    "6712": "\u0120bows",
    "6713": "\u0120Skip",
    "6714": "\u0120exha",
    "6715": "\u0120solution",
    "6716": "\u0120consequences",
    "6717": "Alex",
    "6718": "\u0120Lena",
    "6719": "\u0120tires",
    "6720": "\u0120stain",
    "6721": "Beep",
    "6722": "\u0120unpacked",
    "6723": "Ab",
    "6724": "\u0120partic",
    "6725": "rance",
    "6726": "\u0120races",
    "6727": "\u0120pins",
    "6728": "\u0120bumps",
    "6729": "\u0120wraps",
    "6730": "aisies",
    "6731": "\u0120wow",
    "6732": "\u0120decorating",
    "6733": "\u0120backed",
    "6734": "cher",
    "6735": "\u0120dentist",
    "6736": "\u0120purr",
    "6737": "\u0120needles",
    "6738": "\u0120cautiously",
    "6739": "\u0120lifting",
    "6740": "izzie",
    "6741": "\u0120Pr",
    "6742": "\u0120accomplish",
    "6743": "\u0120triangles",
    "6744": "\u0120daisies",
    "6745": "ept",
    "6746": "\u0120hesitated",
    "6747": "\u0120annoy",
    "6748": "\u0120Those",
    "6749": "\u0120growls",
    "6750": "\u0120crackers",
    "6751": "oke",
    "6752": "\u0120stomped",
    "6753": "\u0120grabbing",
    "6754": "\u0120cott",
    "6755": "\u0120figured",
    "6756": "\u0120bodies",
    "6757": "\u0120mater",
    "6758": "\u0120buying",
    "6759": "\u0120Tree",
    "6760": "\u0120material",
    "6761": "\u0120Rolly",
    "6762": "\u0120Fido",
    "6763": "\u0120Adam",
    "6764": "\u0120swans",
    "6765": "\u0120ties",
    "6766": "\u0120gri",
    "6767": "vers",
    "6768": "\u0120grows",
    "6769": "\u0120\u010a\u0120",
    "6770": "\u0120sweets",
    "6771": "\u0120Goodbye",
    "6772": "\u0120owners",
    "6773": "\u0120flavor",
    "6774": "\u0120cheeks",
    "6775": "\u0120Cathy",
    "6776": "Big",
    "6777": "\u0120suffering",
    "6778": "\u0120Jessie",
    "6779": "\u0120El",
    "6780": "vroom",
    "6781": "\u0120fact",
    "6782": "\u0120groups",
    "6783": "bly",
    "6784": "\u0120forehead",
    "6785": "\u0120lungs",
    "6786": "Harry",
    "6787": "\u0120repa",
    "6788": "\u0120interested",
    "6789": "\u0120bakery",
    "6790": "\u0120Milo",
    "6791": "\u0120freed",
    "6792": "Lilly",
    "6793": "itches",
    "6794": "\u0120Nothing",
    "6795": "\u0120chuckled",
    "6796": "For",
    "6797": "\u0120swept",
    "6798": "\u0120conn",
    "6799": "?'",
    "6800": "\u0120thud",
    "6801": "\u0120exhausted",
    "6802": "Tw",
    "6803": "\u0120twinkling",
    "6804": "\u0120tapped",
    "6805": "Ru",
    "6806": "\u0120nect",
    "6807": "rosty",
    "6808": "\u0120nectar",
    "6809": "elle",
    "6810": "\u0120feast",
    "6811": "\u0120darling",
    "6812": "indr",
    "6813": "\u0120Mad",
    "6814": "\u0120worries",
    "6815": "\u0120uns",
    "6816": "\u0120tunnels",
    "6817": "\u0120fuzzy",
    "6818": "\u0120repaired",
    "6819": "\u0120reason",
    "6820": "\u0120Trust",
    "6821": "\u0120Copper",
    "6822": "\u0120Ball",
    "6823": "\u0120activities",
    "6824": "lets",
    "6825": "\u0120pecked",
    "6826": "\u0120Hannah",
    "6827": "\u0120entrance",
    "6828": "\u0120Try",
    "6829": "\u0120raindr",
    "6830": "\u0120meals",
    "6831": "\u0120Listen",
    "6832": "\u0120particular",
    "6833": "\u0120completely",
    "6834": "\u0120mailed",
    "6835": "ctions",
    "6836": "\u0120nests",
    "6837": "\u0120waiter",
    "6838": "\u0120cuddly",
    "6839": "\u0120sense",
    "6840": "\u0120Nana",
    "6841": "\u0120colored",
    "6842": "arky",
    "6843": "\u0120leap",
    "6844": "step",
    "6845": "band",
    "6846": "\u0120plenty",
    "6847": "\u0120peeking",
    "6848": "\u0120slammed",
    "6849": "\u0120Cara",
    "6850": "no",
    "6851": "\u0120players",
    "6852": "\u0120month",
    "6853": "\u0120budge",
    "6854": "\u0120Birthday",
    "6855": "\u0120Q",
    "6856": "\u0120scra",
    "6857": "\u0120forgets",
    "6858": "\u0120den",
    "6859": "\u0120handful",
    "6860": "\u0120Oliver",
    "6861": "\u0120mer",
    "6862": "ossible",
    "6863": "\u0120genie",
    "6864": "\u0120Christ",
    "6865": "\u0120stool",
    "6866": "iggie",
    "6867": "\u0120talks",
    "6868": "\u0120Pup",
    "6869": "\u0120Suzie",
    "6870": "\u0120passports",
    "6871": "\u0120feeding",
    "6872": "\u0120films",
    "6873": "\u0120baths",
    "6874": "\u0120impossible",
    "6875": "\u0120determination",
    "6876": "May",
    "6877": "\u0120printing",
    "6878": "boat",
    "6879": "\u0120designed",
    "6880": "\u0120buses",
    "6881": "\u0120opp",
    "6882": "ueen",
    "6883": "lephant",
    "6884": "\u0120suitcase",
    "6885": "\u0120bars",
    "6886": "\u0120counts",
    "6887": "\u0120stolen",
    "6888": "\u0120spreading",
    "6889": "\u0120spikes",
    "6890": "\u0120Snap",
    "6891": "\u0120wiping",
    "6892": "\u0120steer",
    "6893": "\u0120lamb",
    "6894": "\u0120Rain",
    "6895": "\u0120honked",
    "6896": "etty",
    "6897": "nies",
    "6898": "Whee",
    "6899": "\u0120cowb",
    "6900": "\u0120separated",
    "6901": "blings",
    "6902": "\u0120siblings",
    "6903": "\u0120hops",
    "6904": "\u0120chop",
    "6905": "\u0120sewing",
    "6906": "\u0120fires",
    "6907": "\u0120Twinkle",
    "6908": "\u0120fever",
    "6909": "\u0120twinkle",
    "6910": "\u0120ty",
    "6911": "\u0120camping",
    "6912": "\u0120Mira",
    "6913": "\u0120lower",
    "6914": "\u0120changing",
    "6915": "yes",
    "6916": "retch",
    "6917": "\u0120behavi",
    "6918": "\u0120Bloom",
    "6919": "mas",
    "6920": "\u0120liqu",
    "6921": "\u0120celebration",
    "6922": "but",
    "6923": "\u0120squealed",
    "6924": "\u0120dollhouse",
    "6925": "Sunny",
    "6926": "\u0120backward",
    "6927": "\u0120age",
    "6928": "\u0120snatched",
    "6929": "\u0120cash",
    "6930": "ho",
    "6931": "\u0120twice",
    "6932": "lee",
    "6933": "\u0120sway",
    "6934": "itched",
    "6935": "\u0120celebrating",
    "6936": "\u0120Peanut",
    "6937": "\u0120shrinking",
    "6938": "\u0120ache",
    "6939": "weed",
    "6940": "\u0120kings",
    "6941": "rious",
    "6942": "\u0120shops",
    "6943": "\u0120kittens",
    "6944": "cope",
    "6945": "Rose",
    "6946": "\u0120Jessica",
    "6947": "\u0120Jacob",
    "6948": "\u0120Gina",
    "6949": "aura",
    "6950": "\u0120hus",
    "6951": "\u0120touches",
    "6952": "airy",
    "6953": "\u0120pancakes",
    "6954": "\u0120avoid",
    "6955": "\u0120spat",
    "6956": "\u0120Frosty",
    "6957": "rig",
    "6958": "hog",
    "6959": "\u0120Nina",
    "6960": "\u0120paths",
    "6961": "ives",
    "6962": "cky",
    "6963": "\u0120Hold",
    "6964": "\u0120rotten",
    "6965": "\u0120calmed",
    "6966": "Sandy",
    "6967": "\u0120seaweed",
    "6968": "\u0120dropping",
    "6969": "\u0120Jon",
    "6970": "\u0120Mel",
    "6971": "iles",
    "6972": "Pipp",
    "6973": "\u0120twisting",
    "6974": "\u0120stroked",
    "6975": "\u0120untied",
    "6976": "llen",
    "6977": "\u0120playhouse",
    "6978": "ne",
    "6979": "Millie",
    "6980": "\u0120students",
    "6981": "\u0120puppies",
    "6982": "cl",
    "6983": "\u0120Sof",
    "6984": "hi",
    "6985": "\u0120screws",
    "6986": "\u0120astron",
    "6987": "\u0120Re",
    "6988": "\u0120somebody",
    "6989": "igning",
    "6990": "\u0120liquid",
    "6991": "ammy",
    "6992": "\u0120wakes",
    "6993": "\u0120squish",
    "6994": "\u0120Woof",
    "6995": "\u0120bracelets",
    "6996": "\u0120astronaut",
    "6997": "immer",
    "6998": "aren",
    "6999": "\u0120thrown",
    "7000": "\u0120loops",
    "7001": "\u0120Other",
    "7002": "Luckily",
    "7003": "\u0120wrapping",
    "7004": "\u0120plain",
    "7005": "\u0120tramp",
    "7006": "\u0120planning",
    "7007": "\u0120skunk",
    "7008": "\u0120aimed",
    "7009": "\u0120pennies",
    "7010": "\u0120shoo",
    "7011": "\u0120lifts",
    "7012": "\u0120dancers",
    "7013": "\u0120sparks",
    "7014": "\u0120firefly",
    "7015": "pen",
    "7016": "Dan",
    "7017": "\u0120poster",
    "7018": "yan",
    "7019": "endy",
    "7020": "\u0120cust",
    "7021": "\u0120Christmas",
    "7022": "\u0120rewarded",
    "7023": "\u0120objects",
    "7024": "\u0120directions",
    "7025": "using",
    "7026": "ingo",
    "7027": "\u0120reflection",
    "7028": "\u0120husband",
    "7029": "\u00e2\u0122\u0136",
    "7030": "Take",
    "7031": "river",
    "7032": "\u0120clues",
    "7033": "uppy",
    "7034": "\u0120leads",
    "7035": "\u0120increased",
    "7036": "\u0120blocked",
    "7037": "\u0120rising",
    "7038": "\u0120dod",
    "7039": "\u0120cousin",
    "7040": "\u0120Yesterday",
    "7041": "\u0120Without",
    "7042": "\u0120forgetting",
    "7043": "rigued",
    "7044": "\u0120custom",
    "7045": "Kate",
    "7046": "ude",
    "7047": "\u0120trampoline",
    "7048": "\u0120beginning",
    "7049": "\u0120storekeeper",
    "7050": "\u0120pouted",
    "7051": "\u0120zebras",
    "7052": "\u0120hedgehog",
    "7053": "\u0120aff",
    "7054": "\u0120\u00e2\u0122\u013a",
    "7055": "\u0120borrowed",
    "7056": "\u0120Rollie",
    "7057": "\u0120snowfl",
    "7058": "\u0120countryside",
    "7059": "Jump",
    "7060": "\u0120mesmer",
    "7061": "\u0120Jay",
    "7062": "\u0120vehicles",
    "7063": "\u0120instrum",
    "7064": "\u0120Mic",
    "7065": "\u0120Kayla",
    "7066": "\u0120Up",
    "7067": "\u0120frowning",
    "7068": "ivity",
    "7069": "Pat",
    "7070": "Under",
    "7071": "\u0120marker",
    "7072": "yond",
    "7073": "\u0120presses",
    "7074": "\u0120beyond",
    "7075": "\u0120Queen",
    "7076": "\u0120damage",
    "7077": "\u0120Only",
    "7078": "iece",
    "7079": "ivery",
    "7080": "\u0120fart",
    "7081": "\u0120Tara",
    "7082": "\u0120Biggie",
    "7083": "jo",
    "7084": "\u0120health",
    "7085": "\u0120whispers",
    "7086": "\u0120swimsuit",
    "7087": "\u0120slips",
    "7088": "\u0120nibb",
    "7089": "\u0120Julia",
    "7090": "armer",
    "7091": "\u0120warmer",
    "7092": "\u0120flapping",
    "7093": "\u0120tiptoed",
    "7094": "\u0120regretted",
    "7095": "itted",
    "7096": "Zip",
    "7097": "\u0120laying",
    "7098": "\u0120Robo",
    "7099": "ades",
    "7100": "\u0120yelp",
    "7101": "\u0120Fire",
    "7102": "\u0120rains",
    "7103": "\u0120glued",
    "7104": "\u0120everybody",
    "7105": "\u0120creations",
    "7106": "\u0120hearing",
    "7107": "\u0120swir",
    "7108": "\u0120colder",
    "7109": "iversity",
    "7110": "ael",
    "7111": "\u0120shaped",
    "7112": "\u0120Elephant",
    "7113": "\u0120streets",
    "7114": "\u0120fins",
    "7115": "\u0120rusty",
    "7116": "\u0120cushions",
    "7117": "Out",
    "7118": "\u0120san",
    "7119": "\u0120farthest",
    "7120": "\u0120creativity",
    "7121": "\u0120Mikey",
    "7122": "ans",
    "7123": "\u0120sale",
    "7124": "Always",
    "7125": "Co",
    "7126": "\u0120strongest",
    "7127": "ibbit",
    "7128": "\u0120fits",
    "7129": "\u0120Sparky",
    "7130": "\u0120bells",
    "7131": "\u0120dollars",
    "7132": "\u0120Larry",
    "7133": "\u0120earn",
    "7134": "iam",
    "7135": "angle",
    "7136": "\u0120lending",
    "7137": "\u0120Moon",
    "7138": "\u0120Chirp",
    "7139": "eese",
    "7140": "\u0120cashier",
    "7141": "Milly",
    "7142": "\u0120including",
    "7143": "\u0120sniffs",
    "7144": "\u0120sank",
    "7145": "\u0120raincoat",
    "7146": "\u0120Rich",
    "7147": "\u0120trembled",
    "7148": "\u0120stopping",
    "7149": "\u0120source",
    "7150": "iti",
    "7151": "imon",
    "7152": "\u0120Missy",
    "7153": "\u0120wobbly",
    "7154": "\u0120indeed",
    "7155": "ters",
    "7156": "\u0120guests",
    "7157": "\u0120single",
    "7158": "\u0120recommended",
    "7159": "\u0120wee",
    "7160": "\u0120spells",
    "7161": "\u0120accomplishment",
    "7162": "\u0120belts",
    "7163": "\u0120surprising",
    "7164": "\u0120ends",
    "7165": "\u0120hopeful",
    "7166": "\u0120seasons",
    "7167": "\u0120Take",
    "7168": "\u0120Snowman",
    "7169": "\u0120Els",
    "7170": "Bear",
    "7171": "\u0120plans",
    "7172": "ichael",
    "7173": "\u0120encourag",
    "7174": "\u0120supported",
    "7175": "stick",
    "7176": "illed",
    "7177": "\u0120suffered",
    "7178": "\u0120artist",
    "7179": "\u0120performance",
    "7180": "eet",
    "7181": "Nina",
    "7182": "\u0120slowed",
    "7183": "\u0120gross",
    "7184": "\u0120flavors",
    "7185": "iding",
    "7186": "ertain",
    "7187": "\u0120spins",
    "7188": "cho",
    "7189": "Quack",
    "7190": "\u0120labels",
    "7191": "\u0120raindrops",
    "7192": "\u0120delivery",
    "7193": "uing",
    "7194": "arac",
    "7195": "\u0120raccoon",
    "7196": "\u0120forgiving",
    "7197": "obody",
    "7198": "\u0120Woo",
    "7199": "\u0120pours",
    "7200": "the",
    "7201": "ility",
    "7202": "\u0120vanilla",
    "7203": "\u0120turtles",
    "7204": "\u0120stands",
    "7205": "Bill",
    "7206": "uess",
    "7207": "\u0120recipe",
    "7208": "\u0120beam",
    "7209": "\u0120tying",
    "7210": "\u0120Sw",
    "7211": "\u0120geese",
    "7212": "\u0120willing",
    "7213": "\u0120robber",
    "7214": "\u0120drawn",
    "7215": "Vroom",
    "7216": "\u0120wept",
    "7217": "\u0120Bones",
    "7218": "\u0120charac",
    "7219": "\u0120pops",
    "7220": "\u0120corners",
    "7221": "\u0120Sophia",
    "7222": "elia",
    "7223": "\u0120queens",
    "7224": "\u0120sailboat",
    "7225": "\u0120grip",
    "7226": "\u0120die",
    "7227": "\u0120drivers",
    "7228": "itude",
    "7229": "\u0120moo",
    "7230": "\u0120hallway",
    "7231": "\u0120imagining",
    "7232": "\u0120seconds",
    "7233": "\u0120Fuzzy",
    "7234": "Mine",
    "7235": "\u0120preparing",
    "7236": "\u0120widened",
    "7237": "\u0120adult",
    "7238": "\u0120Spirit",
    "7239": "\u0120grocer",
    "7240": "\u0120coop",
    "7241": "\u0120talented",
    "7242": "\u0120Pam",
    "7243": "\u0120Beaky",
    "7244": "\u0120Izzy",
    "7245": "ummies",
    "7246": "\u0120sailors",
    "7247": "lling",
    "7248": "\u0120softer",
    "7249": "\u0120aside",
    "7250": "\u0120watering",
    "7251": "\u0120sending",
    "7252": "\u0120knots",
    "7253": "\u0120unsure",
    "7254": "\u0120tipped",
    "7255": "Lulu",
    "7256": "\u0120treehouse",
    "7257": "\u0120horiz",
    "7258": "\u0120Lizzie",
    "7259": "\u0120notes",
    "7260": "\u0120echo",
    "7261": "igers",
    "7262": "\u0120achieved",
    "7263": "\u0120horizon",
    "7264": "\u0120squeak",
    "7265": "\u0120delivering",
    "7266": "\u0120pleasure",
    "7267": "\u0120hotter",
    "7268": "\u0120Stella",
    "7269": "Clara",
    "7270": "\u0120pupils",
    "7271": "\u0120burrow",
    "7272": "\u0120angels",
    "7273": "\u0120curiously",
    "7274": "Ellie",
    "7275": "\u0120yum",
    "7276": "\u0120blinking",
    "7277": "\u0120June",
    "7278": "\u0120tweet",
    "7279": "\u0120symbols",
    "7280": "\u0120det",
    "7281": "\u0120Stretch",
    "7282": "wk",
    "7283": "\u0120passen",
    "7284": "\u0120Rudy",
    "7285": "\u0120Cindy",
    "7286": "\u0120tummies",
    "7287": "\u0120tiss",
    "7288": "\u0120pigeons",
    "7289": "\u0120figures",
    "7290": "umbling",
    "7291": "oey",
    "7292": "\u0120bandages",
    "7293": "\u0120Robert",
    "7294": "\u0120coup",
    "7295": "\u0120Doctor",
    "7296": "\u0120robots",
    "7297": "alph",
    "7298": "\u0120tossed",
    "7299": "\u0120hour",
    "7300": "\u0120backwards",
    "7301": "\u0120roars",
    "7302": "Baby",
    "7303": "\u0120merma",
    "7304": "uzz",
    "7305": "\u0120rather",
    "7306": "atur",
    "7307": "Maria",
    "7308": "cited",
    "7309": "\u0120Play",
    "7310": "\u0120Crab",
    "7311": "Moo",
    "7312": "ighting",
    "7313": "Dolly",
    "7314": "\u0120groceries",
    "7315": "\u0120zipping",
    "7316": "Put",
    "7317": "Very",
    "7318": "\u0120unw",
    "7319": "prin",
    "7320": "\u0120among",
    "7321": "\u0120blown",
    "7322": "\u0120icing",
    "7323": "!\u00e2\u0122\u013f.",
    "7324": "\u0120rumble",
    "7325": "\u0120afterwards",
    "7326": "ipper",
    "7327": "\u0120screwd",
    "7328": "ushing",
    "7329": "\u0120sped",
    "7330": "\u0120prove",
    "7331": "\u0120glee",
    "7332": "\u0120Titi",
    "7333": "\u0120Tia",
    "7334": "\u0120dip",
    "7335": "\u0120overcome",
    "7336": "Ruby",
    "7337": "Quick",
    "7338": "\u0120surfboard",
    "7339": "\u0120shovels",
    "7340": "\u0120slices",
    "7341": "\u0120Toot",
    "7342": "\u0120merry",
    "7343": "\u0120wobble",
    "7344": "\u0120mate",
    "7345": "\u0120Turt",
    "7346": "\u0120Abbie",
    "7347": "\u0120heading",
    "7348": "\u0120disturbing",
    "7349": "\u0120swall",
    "7350": "\u0120reversed",
    "7351": "\u0120firefighters",
    "7352": "Jul",
    "7353": "\u0120swallowed",
    "7354": "\u0120chip",
    "7355": "eds",
    "7356": "\u0120scored",
    "7357": "\u0120flipped",
    "7358": "\u0120Jump",
    "7359": "\u0120squeezing",
    "7360": "usty",
    "7361": "Frank",
    "7362": "aty",
    "7363": "Su",
    "7364": "\u0120waking",
    "7365": "\u0120intrigued",
    "7366": "Sad",
    "7367": "Like",
    "7368": "\u0120maker",
    "7369": "\u0120Barky",
    "7370": "awn",
    "7371": "Betty",
    "7372": "\u0120puff",
    "7373": "\u0120hawk",
    "7374": "\u0120encouraging",
    "7375": "\u0120aud",
    "7376": "\u0120Ex",
    "7377": "osen",
    "7378": "onies",
    "7379": "\u0120chosen",
    "7380": "\u0120Ron",
    "7381": "hew",
    "7382": "\u0120Farmer",
    "7383": "\u0120Ang",
    "7384": "\u0120couple",
    "7385": "\u0120designs",
    "7386": "\u0120slipping",
    "7387": "\u0120screwdriver",
    "7388": "\u0120squishy",
    "7389": "\u0120Emmy",
    "7390": "\u0120gardener",
    "7391": "\u0120center",
    "7392": "\u0120rivers",
    "7393": "\u0120respond",
    "7394": "\u0120markers",
    "7395": "iley",
    "7396": "\u0120tigers",
    "7397": "\u0120jars",
    "7398": "pecting",
    "7399": "\u0120frowns",
    "7400": "bird",
    "7401": "\u0120fluttered",
    "7402": "\u0120Sadly",
    "7403": "\u0120Kit",
    "7404": "Ribbit",
    "7405": "\u0120firefighter",
    "7406": "\u0120Sl",
    "7407": "\u0120Ryan",
    "7408": "\u0120suits",
    "7409": "\u0120secure",
    "7410": "\u0120sprinkled",
    "7411": "\u0120creamy",
    "7412": "ashes",
    "7413": "\u0120sharks",
    "7414": "\u0120ignoring",
    "7415": "\u0120bru",
    "7416": "\u0120giggles",
    "7417": "\u0120tissue",
    "7418": "\u0120tighter",
    "7419": "\u0120firmly",
    "7420": "ounce",
    "7421": "\u0120Laura",
    "7422": "fly",
    "7423": "\u0120shown",
    "7424": "\u0120familiar",
    "7425": "\u0120thorns",
    "7426": "Spike",
    "7427": "\u0120Wo",
    "7428": "\u0120drawers",
    "7429": "child",
    "7430": "\u0120Zee",
    "7431": "\u0120express",
    "7432": "Car",
    "7433": "ments",
    "7434": "\u0120def",
    "7435": "\u0120daring",
    "7436": "\u0120crossing",
    "7437": "\u0120audience",
    "7438": "\u0120performing",
    "7439": "\u0120coloured",
    "7440": "\u0120cloudy",
    "7441": "\u0120cor",
    "7442": "\u0120ais",
    "7443": "\u0120Nick",
    "7444": "ae",
    "7445": "rat",
    "7446": "\u0120pedaled",
    "7447": "Get",
    "7448": "\u0120mixture",
    "7449": "\u0120til",
    "7450": "\u0120gracefully",
    "7451": "ggy",
    "7452": "\u0120haircuts",
    "7453": "\u0120yielded",
    "7454": "\u0120ponies",
    "7455": "\u0120disob",
    "7456": "\u0120crowns",
    "7457": "\u0120bits",
    "7458": "\u0120todd",
    "7459": "\u0120Sleep",
    "7460": "\u0120nervously",
    "7461": "\u0120hangers",
    "7462": "bbled",
    "7463": "\u0120Patch",
    "7464": "Zoomy",
    "7465": "\u0120pays",
    "7466": "\u01202",
    "7467": "\u0120peck",
    "7468": "\u0120stroke",
    "7469": "\u0120ev",
    "7470": "fall",
    "7471": "Bang",
    "7472": "een",
    "7473": "\u0120respected",
    "7474": "\u0120napped",
    "7475": "aven",
    "7476": "\u0120minded",
    "7477": "ddie",
    "7478": "Bessie",
    "7479": "ably",
    "7480": "Boys",
    "7481": "\u0120tested",
    "7482": "ading",
    "7483": "parent",
    "7484": "\u0120Chris",
    "7485": "Kim",
    "7486": "\u0120University",
    "7487": "\u0120Near",
    "7488": "\u0120beeh",
    "7489": "\u0120Turtle",
    "7490": "\u0120surfing",
    "7491": "\u0120neighbours",
    "7492": "arrow",
    "7493": "vered",
    "7494": "\u0120shady",
    "7495": "iona",
    "7496": "arlings",
    "7497": "\u0120magician",
    "7498": "\u0120enthusiasm",
    "7499": "\u0120darlings",
    "7500": "\u0120wisely",
    "7501": "\u0120stitches",
    "7502": "\u0120sails",
    "7503": "kend",
    "7504": "Dear",
    "7505": "\u0120weekend",
    "7506": "\u0120thoughts",
    "7507": "Freddy",
    "7508": "\u0120Tweetie",
    "7509": "\u0120reminds",
    "7510": "\u0120temper",
    "7511": "oring",
    "7512": "tha",
    "7513": "antha",
    "7514": "\u0120surroundings",
    "7515": "\u0120spits",
    "7516": "\u0120fleas",
    "7517": "\u0120teams",
    "7518": "\u0120lessons",
    "7519": "\u0120fills",
    "7520": "\u0120flip",
    "7521": "\u0120Along",
    "7522": "\u0120paintbrush",
    "7523": "\u0120melons",
    "7524": "\u0120mermaid",
    "7525": "oni",
    "7526": "Katie",
    "7527": "\u0120grandchild",
    "7528": "\u0120hoops",
    "7529": "\u0120explo",
    "7530": "\u0120elbow",
    "7531": "\u0120sports",
    "7532": "Guess",
    "7533": "\u0120lies",
    "7534": "\u0120Fighting",
    "7535": "rac",
    "7536": "\u0120panicked",
    "7537": "\u0120cleaner",
    "7538": "\u0120amount",
    "7539": "cused",
    "7540": "\u0120longest",
    "7541": "\u0120scooters",
    "7542": "\u0120lent",
    "7543": "ita",
    "7544": "immering",
    "7545": "\u0120sill",
    "7546": "\u0120beloved",
    "7547": "Pippin",
    "7548": "\u0120beehive",
    "7549": "Alright",
    "7550": "ongrat",
    "7551": "oga",
    "7552": "lle",
    "7553": "ongratul",
    "7554": "\u0120oysters",
    "7555": "\u0120grandparent",
    "7556": "\u0120forgiven",
    "7557": "\u0120magazines",
    "7558": "\u0120arr",
    "7559": "\u0120Wise",
    "7560": "\u0120elf",
    "7561": "\u0120repeating",
    "7562": "\u0120discussed",
    "7563": "\u0120sweetest",
    "7564": "\u0120Thanks",
    "7565": "Keep",
    "7566": "\u0120wadd",
    "7567": "\u0120Maya",
    "7568": "\u0120reass",
    "7569": "\u0120lace",
    "7570": "\u0120Granny",
    "7571": "\u0120nightmares",
    "7572": "\u0120tubes",
    "7573": "\u0120Willy",
    "7574": "\u0120understands",
    "7575": "\u0120spoonful",
    "7576": "\u0120nood",
    "7577": "\u0120bathing",
    "7578": "\u0120Zoey",
    "7579": "asty",
    "7580": "Am",
    "7581": "\u0120sweep",
    "7582": "\u0120manners",
    "7583": "crow",
    "7584": "Uncle",
    "7585": "\u0120wrink",
    "7586": "\u0120sprang",
    "7587": "\u0120nur",
    "7588": "\u0120bully",
    "7589": "\u0120Holly",
    "7590": "\u0120guide",
    "7591": "\u0120Yet",
    "7592": "onna",
    "7593": "ancy",
    "7594": "\u0120crew",
    "7595": "romise",
    "7596": "Jazz",
    "7597": "\u0120breathed",
    "7598": "while",
    "7599": "steps",
    "7600": "ilda",
    "7601": "ently",
    "7602": "\u0120Bally",
    "7603": "\u0120bulbs",
    "7604": "\u0120neare",
    "7605": "\u0120grassy",
    "7606": "\u0120wiggly",
    "7607": "\u0120testing",
    "7608": "\u0120spies",
    "7609": "\u0120coug",
    "7610": "\u0120solving",
    "7611": "\u0120sheets",
    "7612": "\u0120Roo",
    "7613": "\u0120footsteps",
    "7614": "ntil",
    "7615": "Afterwards",
    "7616": "\u0120speeding",
    "7617": "\u0120focused",
    "7618": "ounced",
    "7619": "cept",
    "7620": "?!\"",
    "7621": "\u0120mesmerized",
    "7622": "\u0120camel",
    "7623": "\u0120braver",
    "7624": "\u0120hesitant",
    "7625": "\u0120Sparkle",
    "7626": "\u0120licking",
    "7627": "\u0120rushing",
    "7628": "\u0120Well",
    "7629": "\u0120joining",
    "7630": "\u0120Puppy",
    "7631": "\u0120polar",
    "7632": "\u0120greeted",
    "7633": "\u0120Martha",
    "7634": "espite",
    "7635": "--",
    "7636": "\u0120Bubb",
    "7637": "Which",
    "7638": "Kiki",
    "7639": "\u0120worn",
    "7640": "\u0120materials",
    "7641": "\u0120changes",
    "7642": "\u0120Nobody",
    "7643": "undred",
    "7644": "\u0120stored",
    "7645": "\u0120bicycles",
    "7646": "\u0120mast",
    "7647": "\u0120anger",
    "7648": "Leave",
    "7649": "\u0120peacefully",
    "7650": "\u0120ships",
    "7651": "\u0120spice",
    "7652": "\u0120terrified",
    "7653": "\u0120nuzz",
    "7654": "\u0120gonna",
    "7655": "\u0120Show",
    "7656": "\u0120politely",
    "7657": "Snow",
    "7658": "\u0120spills",
    "7659": "\u0120scarecrow",
    "7660": "\u0120knives",
    "7661": "\u0120evil",
    "7662": "\u0120Mixy",
    "7663": "ppies",
    "7664": "\u0120burying",
    "7665": "ca",
    "7666": "\u0120healing",
    "7667": "\u0120aren",
    "7668": "\u0120donkey",
    "7669": "\u0120aeroplanes",
    "7670": "freeze",
    "7671": "Even",
    "7672": "\u0120seals",
    "7673": "\u0120scattering",
    "7674": "\u0120miles",
    "7675": "\u0120Chewy",
    "7676": "amboo",
    "7677": "\u0120dump",
    "7678": "\u0120worrying",
    "7679": "Bee",
    "7680": "zoom",
    "7681": "beep",
    "7682": "David",
    "7683": "\u0120Lenny",
    "7684": "\u0120puzzled",
    "7685": "\u0120stacked",
    "7686": "\u0120Kip",
    "7687": "Penny",
    "7688": "\u0120Nice",
    "7689": "\u0120loses",
    "7690": "dding",
    "7691": "\u0120travelled",
    "7692": "\u0120baskets",
    "7693": "\u0120Win",
    "7694": "\u0120Okay",
    "7695": "\u0120gazing",
    "7696": "\u0120blast",
    "7697": "ipes",
    "7698": "\u0120Tess",
    "7699": "Hurry",
    "7700": "\u0120temperature",
    "7701": "\u0120und",
    "7702": "\u0120tasting",
    "7703": "\u0120dripping",
    "7704": "\u0120clue",
    "7705": "\u0120believing",
    "7706": "\u0120pinching",
    "7707": "erm",
    "7708": "\u0120soaking",
    "7709": "\u0120rats",
    "7710": "\u012010",
    "7711": "isc",
    "7712": "\u0120sandy",
    "7713": "rect",
    "7714": "\u0120Isn",
    "7715": "\u0120Simon",
    "7716": "rey",
    "7717": "anwhile",
    "7718": "\u0120Abi",
    "7719": "Binky",
    "7720": "\u0120punishment",
    "7721": "\u0120banged",
    "7722": "\u0120humans",
    "7723": "\u0120crashing",
    "7724": "\u0120force",
    "7725": "\u0120Ana",
    "7726": "\u0120hundred",
    "7727": "\u0120gest",
    "7728": "\u0120Lia",
    "7729": "\u0120swimmer",
    "7730": "\u0120Chess",
    "7731": "\u0120snowflakes",
    "7732": "\u0120relaxing",
    "7733": "\u0120resisted",
    "7734": "\u0120beeped",
    "7735": "\u0120Fairy",
    "7736": "\u0120quarreled",
    "7737": "\u0120\u010a",
    "7738": "form",
    "7739": "elie",
    "7740": "\u0120ramp",
    "7741": "\u0120Wendy",
    "7742": "\u0120joins",
    "7743": "abby",
    "7744": "\u0120backpacks",
    "7745": "\u0120Ph",
    "7746": "years",
    "7747": "\u0120dressing",
    "7748": "\u0120delayed",
    "7749": "\u0120toddler",
    "7750": "\u0120Luckily",
    "7751": "\u0120flight",
    "7752": "\u0120covering",
    "7753": "\u0120Te",
    "7754": "orter",
    "7755": "Two",
    "7756": "Open",
    "7757": "By",
    "7758": "\u0120encouragement",
    "7759": "\u0120benches",
    "7760": "\u0120toward",
    "7761": "\u0120scraped",
    "7762": "\u0120purpose",
    "7763": "\u0120focus",
    "7764": "\u0120Judy",
    "7765": "Bow",
    "7766": "\u0120correct",
    "7767": "'.\"",
    "7768": "\u0120lipstick",
    "7769": "\u0120bamboo",
    "7770": "Spe",
    "7771": "\u0120twinkled",
    "7772": "\u0120potion",
    "7773": "\u0120permitted",
    "7774": "\u0120months",
    "7775": "\u0120Cow",
    "7776": "\u0120languages",
    "7777": "\u0120orders",
    "7778": "\u0120freedom",
    "7779": "Tony",
    "7780": "\u0120risks",
    "7781": "\u0120poppies",
    "7782": "\u0120master",
    "7783": "shm",
    "7784": "\u0120noodles",
    "7785": "\u0120faded",
    "7786": "\u0120wounds",
    "7787": "shmallow",
    "7788": "rier",
    "7789": "Kids",
    "7790": "isions",
    "7791": "\u0120Jojo",
    "7792": "\u0120creams",
    "7793": "\u0120birdhouse",
    "7794": "\u0120cells",
    "7795": "\u0120annoyed",
    "7796": "\u0120Herb",
    "7797": "opes",
    "7798": "\u0120sniffing",
    "7799": "\u0120cheers",
    "7800": "\u0120adults",
    "7801": "Birdy",
    "7802": "\u0120unwra",
    "7803": "ecca",
    "7804": "Buzzy",
    "7805": "\u0120puck",
    "7806": "\u0120opinions",
    "7807": "\u0120floats",
    "7808": "andas",
    "7809": "Instead",
    "7810": "\u0120flown",
    "7811": "\u0120sneezes",
    "7812": "\u0120scen",
    "7813": "\u0120handsome",
    "7814": "\u0120nodding",
    "7815": "\u0120Mint",
    "7816": "\u0120smelling",
    "7817": "\u0120burnt",
    "7818": "\u01205",
    "7819": "\u0120drifted",
    "7820": "ider",
    "7821": "bage",
    "7822": "\u0120within",
    "7823": "\u0120scient",
    "7824": "\u0120height",
    "7825": "\u0120damaged",
    "7826": "\u0120bothering",
    "7827": "\u0120tearing",
    "7828": "\u0120slither",
    "7829": "\u0120pleaded",
    "7830": "\u0120instruments",
    "7831": "\u0120ease",
    "7832": "\u0120Ali",
    "7833": "da",
    "7834": "Back",
    "7835": "\u0120scientist",
    "7836": "\u0120Marie",
    "7837": "Mira",
    "7838": "Goodnight",
    "7839": "\u0120pound",
    "7840": "\u0120seller",
    "7841": "\u0120handing",
    "7842": "\u0120germ",
    "7843": "\u0120Say",
    "7844": "\u0120wasting",
    "7845": "\u0120files",
    "7846": "\u0120results",
    "7847": "\u0120dreamt",
    "7848": "\u0120Mabel",
    "7849": "bell",
    "7850": "\u0120explains",
    "7851": "\u0120destroying",
    "7852": "\u0120brushing",
    "7853": "ousy",
    "7854": "\u0120hiss",
    "7855": "\u0120characters",
    "7856": "\u0120Razor",
    "7857": "\u0120Cr",
    "7858": "Carl",
    "7859": "\u0120certain",
    "7860": "\u0120Ste",
    "7861": "Pandy",
    "7862": "Behind",
    "7863": "\u0120sweaty",
    "7864": "\u0120Hug",
    "7865": "unched",
    "7866": "\u0120business",
    "7867": "\u0120Robbie",
    "7868": "\u0120talents",
    "7869": "\u0120onward",
    "7870": "Try",
    "7871": "\u0120engines",
    "7872": "\u0120bravest",
    "7873": "ition",
    "7874": "\u0120sternly",
    "7875": "\u0120Pen",
    "7876": "\u0120Janie",
    "7877": "prints",
    "7878": "\u0120postman",
    "7879": "\u0120mosquitoes",
    "7880": "\u0120minds",
    "7881": "under",
    "7882": "cake",
    "7883": "\u0120tuck",
    "7884": "\u0120scares",
    "7885": "urious",
    "7886": "\u0120stomp",
    "7887": "\u0120apologised",
    "7888": "uel",
    "7889": "\u0120manag",
    "7890": "\u0120snuck",
    "7891": "\u0120bitten",
    "7892": "attered",
    "7893": "\u0120tilted",
    "7894": "\u0120switched",
    "7895": "\u0120reminding",
    "7896": "\u0120decisions",
    "7897": "\u0120singers",
    "7898": "\u0120desper",
    "7899": "\u0120behavior",
    "7900": "\u0120Poor",
    "7901": "ashing",
    "7902": "\u0120Judge",
    "7903": "bbers",
    "7904": "inny",
    "7905": "\u0120squeaked",
    "7906": "\u0120peeled",
    "7907": "\u0120Everybody",
    "7908": "\u0120yumm",
    "7909": "\u0120purrs",
    "7910": "\u0120Bra",
    "7911": "\u0120treated",
    "7912": "\u0120smashed",
    "7913": "\u0120rustling",
    "7914": "\u0120displayed",
    "7915": "\u0120Until",
    "7916": "\u0120neatly",
    "7917": "\u0120matey",
    "7918": "\u0120planting",
    "7919": "\u0120Bess",
    "7920": "\u0120marshmallow",
    "7921": "\u0120insp",
    "7922": "\u0120yelped",
    "7923": "\u0120sy",
[...]
